{
  "version": "1.0",
  "truncation": null,
  "padding": null,
  "added_tokens": [
    {
      "id": 0,
      "content": "<pad>",
      "single_word": false,
      "lstrip": false,
      "rstrip": false,
      "normalized": false,
      "special": true
    },
    {
      "id": 1,
      "content": "<s>",
      "single_word": false,
      "lstrip": false,
      "rstrip": false,
      "normalized": false,
      "special": true
    },
    {
      "id": 2,
      "content": "</s>",
      "single_word": false,
      "lstrip": false,
      "rstrip": false,
      "normalized": false,
      "special": true
    },
    {
      "id": 3,
      "content": "<unk>",
      "single_word": false,
      "lstrip": false,
      "rstrip": false,
      "normalized": false,
      "special": true
    },
    {
      "id": 4,
      "content": "<mask>",
      "single_word": false,
      "lstrip": false,
      "rstrip": false,
      "normalized": false,
      "special": true
    }
  ],
  "normalizer": null,
  "pre_tokenizer": {
    "type": "Whitespace"
  },
  "post_processor": null,
  "decoder": null,
  "model": {
    "type": "BPE",
    "dropout": null,
    "unk_token": null,
    "continuing_subword_prefix": null,
    "end_of_word_suffix": null,
    "fuse_unk": false,
    "byte_fallback": false,
    "ignore_merges": false,
    "vocab": {
      "<pad>": 0,
      "<s>": 1,
      "</s>": 2,
      "<unk>": 3,
      "<mask>": 4,
      "0": 5,
      "1": 6,
      "2": 7,
      "3": 8,
      "4": 9,
      "5": 10,
      "6": 11,
      "7": 12,
      "8": 13,
      "9": 14,
      "A": 15,
      "B": 16,
      "C": 17,
      "D": 18,
      "E": 19,
      "F": 20,
      "G": 21,
      "H": 22,
      "I": 23,
      "J": 24,
      "K": 25,
      "L": 26,
      "M": 27,
      "N": 28,
      "O": 29,
      "P": 30,
      "Q": 31,
      "R": 32,
      "S": 33,
      "T": 34,
      "U": 35,
      "V": 36,
      "W": 37,
      "X": 38,
      "Y": 39,
      "Z": 40,
      "a": 41,
      "b": 42,
      "c": 43,
      "d": 44,
      "e": 45,
      "f": 46,
      "g": 47,
      "h": 48,
      "i": 49,
      "j": 50,
      "k": 51,
      "l": 52,
      "m": 53,
      "n": 54,
      "o": 55,
      "p": 56,
      "q": 57,
      "r": 58,
      "s": 59,
      "t": 60,
      "u": 61,
      "v": 62,
      "w": 63,
      "x": 64,
      "y": 65,
      "z": 66,
      "ऀ": 67,
      "ँ": 68,
      "ं": 69,
      "ः": 70,
      "ऄ": 71,
      "अ": 72,
      "आ": 73,
      "इ": 74,
      "ई": 75,
      "उ": 76,
      "ऊ": 77,
      "ऋ": 78,
      "ऌ": 79,
      "ऍ": 80,
      "ऎ": 81,
      "ए": 82,
      "ऐ": 83,
      "ऑ": 84,
      "ऒ": 85,
      "ओ": 86,
      "औ": 87,
      "क": 88,
      "ख": 89,
      "ग": 90,
      "घ": 91,
      "ङ": 92,
      "च": 93,
      "छ": 94,
      "ज": 95,
      "झ": 96,
      "ञ": 97,
      "ट": 98,
      "ठ": 99,
      "ड": 100,
      "ढ": 101,
      "ण": 102,
      "त": 103,
      "थ": 104,
      "द": 105,
      "ध": 106,
      "न": 107,
      "ऩ": 108,
      "प": 109,
      "फ": 110,
      "ब": 111,
      "भ": 112,
      "म": 113,
      "य": 114,
      "र": 115,
      "ऱ": 116,
      "ल": 117,
      "ळ": 118,
      "ऴ": 119,
      "व": 120,
      "श": 121,
      "ष": 122,
      "स": 123,
      "ह": 124,
      "ऺ": 125,
      "ऻ": 126,
      "़": 127,
      "ऽ": 128,
      "ा": 129,
      "ि": 130,
      "ी": 131,
      "ु": 132,
      "ू": 133,
      "ृ": 134,
      "ॄ": 135,
      "ॅ": 136,
      "ॆ": 137,
      "े": 138,
      "ै": 139,
      "ॉ": 140,
      "ॊ": 141,
      "ो": 142,
      "ौ": 143,
      "्": 144,
      "ॎ": 145,
      "ॐ": 146,
      "॑": 147,
      "॒": 148,
      "॓": 149,
      "॔": 150,
      "ॕ": 151,
      "ॖ": 152,
      "ॗ": 153,
      "क़": 154,
      "ख़": 155,
      "ग़": 156,
      "ज़": 157,
      "ड़": 158,
      "ढ़": 159,
      "फ़": 160,
      "य़": 161,
      "ॠ": 162,
      "ॡ": 163,
      "ॢ": 164,
      "ॣ": 165,
      "।": 166,
      "॥": 167,
      "०": 168,
      "१": 169,
      "२": 170,
      "३": 171,
      "४": 172,
      "५": 173,
      "६": 174,
      "७": 175,
      "८": 176,
      "९": 177,
      "॰": 178,
      "ॱ": 179,
      "ॲ": 180,
      "ॳ": 181,
      "ॴ": 182,
      "ॶ": 183,
      "ॻ": 184,
      "ॼ": 185,
      "ॽ": 186,
      "या": 187,
      "्या": 188,
      "ार": 189,
      "्र": 190,
      "ला": 191,
      "ना": 192,
      "हे": 193,
      "का": 194,
      "र्": 195,
      "ात": 196,
      "्य": 197,
      "ले": 198,
      "आहे": 199,
      "वा": 200,
      "च्या": 201,
      "सा": 202,
      "कर": 203,
      "ही": 204,
      "ती": 205,
      "स्": 206,
      "ने": 207,
      "ली": 208,
      "मा": 209,
      "त्या": 210,
      "चा": 211,
      "ता": 212,
      "क्": 213,
      "ून": 214,
      "ल्या": 215,
      "रा": 216,
      "प्र": 217,
      "वि": 218,
      "के": 219,
      "ची": 220,
      "पा": 221,
      "ण्या": 222,
      "चे": 223,
      "अस": 224,
      "हो": 225,
      "ते": 226,
      "हा": 227,
      "नी": 228,
      "ंत": 229,
      "वर": 230,
      "मु": 231,
      "नि": 232,
      "आण": 233,
      "कार": 234,
      "ंनी": 235,
      "सं": 236,
      "आणि": 237,
      "दि": 238,
      "दे": 239,
      "क्ष": 240,
      "हि": 241,
      "मध": 242,
      "णा": 243,
      "वे": 244,
      "बा": 245,
      "ील": 246,
      "त्": 247,
      "ंग": 248,
      "्ये": 249,
      "म्": 250,
      "ठी": 251,
      "जा": 252,
      "भा": 253,
      "ंद": 254,
      "झा": 255,
      "तर": 256,
      "ित": 257,
      "ंना": 258,
      "ंच्या": 259,
      "रो": 260,
      "सु": 261,
      "ये": 262,
      "को": 263,
      "साठी": 264,
      "मि": 265,
      "गा": 266,
      "मध्ये": 267,
      "्ट": 268,
      "पर": 269,
      "दा": 270,
      "शा": 271,
      "की": 272,
      "ळे": 273,
      "ल्": 274,
      "णार": 275,
      "से": 276,
      "मी": 277,
      "िक": 278,
      "वी": 279,
      "णी": 280,
      "व्": 281,
      "पु": 282,
      "ण्यात": 283,
      "मो": 284,
      "रु": 285,
      "म्ह": 286,
      "नाही": 287,
      "णे": 288,
      "न्": 289,
      "ंड": 290,
      "शी": 291,
      "लि": 292,
      "्री": 293,
      "तो": 294,
      "आहेत": 295,
      "ंब": 296,
      "री": 297,
      "द्": 298,
      "ारा": 299,
      "ति": 300,
      "शि": 301,
      "ष्ट": 302,
      "एक": 303,
      "घे": 304,
      "कड": 305,
      "स्थ": 306,
      "राज": 307,
      "मुळे": 308,
      "ळा": 309,
      "लं": 310,
      "आप": 311,
      "दी": 312,
      "टी": 313,
      "जी": 314,
      "ळी": 315,
      "पो": 316,
      "यांनी": 317,
      "तील": 318,
      "कि": 319,
      "पू": 320,
      "रे": 321,
      "्रा": 322,
      "वार": 323,
      "ंची": 324,
      "जे": 325,
      "सर": 326,
      "धा": 327,
      "मे": 328,
      "सो": 329,
      "लेल्या": 330,
      "ऱ्या": 331,
      "खा": 332,
      "वर्": 333,
      "सर्": 334,
      "तात": 335,
      "लो": 336,
      "गे": 337,
      "टा": 338,
      "ंतर": 339,
      "धी": 340,
      "डी": 341,
      "ंचा": 342,
      "शे": 343,
      "असे": 344,
      "म्हण": 345,
      "सि": 346,
      "क्र": 347,
      "श्": 348,
      "मार": 349,
      "तु": 350,
      "सी": 351,
      "मात": 352,
      "होते": 353,
      "केली": 354,
      "नंतर": 355,
      "दु": 356,
      "त्र": 357,
      "चं": 358,
      "काही": 359,
      "्यात": 360,
      "व्य": 361,
      "रि": 362,
      "भार": 363,
      "जात": 364,
      "कु": 365,
      "मान": 366,
      "द्या": 367,
      "जि": 368,
      "स्ट": 369,
      "पास": 370,
      "वड": 371,
      "अध": 372,
      "चार": 373,
      "दार": 374,
      "ठा": 375,
      "पर्": 376,
      "शक": 377,
      "ंचे": 378,
      "यो": 379,
      "ग्": 380,
      "घा": 381,
      "केले": 382,
      "रात": 383,
      "मह": 384,
      "करण्या": 385,
      "करण्यात": 386,
      "गु": 387,
      "स्त": 388,
      "रू": 389,
      "लाग": 390,
      "मंत": 391,
      "नु": 392,
      "करा": 393,
      "र्ण": 394,
      "असल्या": 395,
      "दो": 396,
      "पे": 397,
      "पी": 398,
      "केला": 399,
      "क्त": 400,
      "उप": 401,
      "सार": 402,
      "यांच्या": 403,
      "वर्ष": 404,
      "न्या": 405,
      "सर्व": 406,
      "दर": 407,
      "पण": 408,
      "देश": 409,
      "्रे": 410,
      "डा": 411,
      "गो": 412,
      "दिव": 413,
      "सांग": 414,
      "स्था": 415,
      "क्षा": 416,
      "परि": 417,
      "व्हा": 418,
      "आले": 419,
      "घेत": 420,
      "महा": 421,
      "सरकार": 422,
      "यंत": 423,
      "होती": 424,
      "यु": 425,
      "आता": 426,
      "कडे": 427,
      "मुख": 428,
      "सह": 429,
      "आपल्या": 430,
      "ताना": 431,
      "प्": 432,
      "ठे": 433,
      "होत": 434,
      "मुंब": 435,
      "गर": 436,
      "ातील": 437,
      "काय": 438,
      "डि": 439,
      "वाढ": 440,
      "मुंबई": 441,
      "आज": 442,
      "र्थ": 443,
      "होता": 444,
      "ंध": 445,
      "डे": 446,
      "कर्": 447,
      "ऊन": 448,
      "खे": 449,
      "द्ध": 450,
      "बत": 451,
      "गी": 452,
      "थे": 453,
      "झाले": 454,
      "टे": 455,
      "पासून": 456,
      "स्व": 457,
      "बो": 458,
      "चि": 459,
      "व्या": 460,
      "त्यामुळे": 461,
      "काम": 462,
      "मात्र": 463,
      "नो": 464,
      "त्यांनी": 465,
      "मिळ": 466,
      "वारी": 467,
      "चित": 468,
      "त्य": 469,
      "माण": 470,
      "एका": 471,
      "महि": 472,
      "ंद्र": 473,
      "अने": 474,
      "जन": 475,
      "उत्": 476,
      "ण्यासाठी": 477,
      "जार": 478,
      "असा": 479,
      "पड": 480,
      "नं": 481,
      "ष्ट्र": 482,
      "असून": 483,
      "व्ह": 484,
      "वळ": 485,
      "माहि": 486,
      "कोरो": 487,
      "आली": 488,
      "त्यांच्या": 489,
      "कोरोना": 490,
      "घट": 491,
      "ईल": 492,
      "पर्यंत": 493,
      "िका": 494,
      "मंत्री": 495,
      "दर्": 496,
      "ब्": 497,
      "लया": 498,
      "झाली": 499,
      "माहिती": 500,
      "शन": 501,
      "अनेक": 502,
      "पार": 503,
      "करून": 504,
      "भाज": 505,
      "ंवर": 506,
      "ष्": 507,
      "नस": 508,
      "वेळी": 509,
      "जिल्": 510,
      "बी": 511,
      "झाला": 512,
      "भू": 513,
      "सुरू": 514,
      "सम": 515,
      "म्हणून": 516,
      "रुग्": 517,
      "अशी": 518,
      "णाऱ्या": 519,
      "आरो": 520,
      "निर्": 521,
      "भाग": 522,
      "पि": 523,
      "किं": 524,
      "कडून": 525,
      "वात": 526,
      "भे": 527,
      "कार्य": 528,
      "तरी": 529,
      "ण्याची": 530,
      "काळ": 531,
      "निवड": 532,
      "टो": 533,
      "जो": 534,
      "मार्": 535,
      "भि": 536,
      "ंट": 537,
      "धार": 538,
      "करत": 539,
      "आला": 540,
      "फो": 541,
      "माग": 542,
      "महारा": 543,
      "च्": 544,
      "यला": 545,
      "प्रा": 546,
      "त्यांना": 547,
      "लोक": 548,
      "तसे": 549,
      "ंमध्ये": 550,
      "बर": 551,
      "दोन": 552,
      "राह": 553,
      "मुख्य": 554,
      "पोलि": 555,
      "दाख": 556,
      "भर": 557,
      "चाल": 558,
      "दिली": 559,
      "दल": 560,
      "मत": 561,
      "२०": 562,
      "ंप": 563,
      "पूर्": 564,
      "ज्": 565,
      "पूर्ण": 566,
      "ंदा": 567,
      "न्हा": 568,
      "अशा": 569,
      "फे": 570,
      "सू": 571,
      "असं": 572,
      "म्ही": 573,
      "पूर": 574,
      "झाल्या": 575,
      "देख": 576,
      "रुप": 577,
      "पुढ": 578,
      "लक्ष": 579,
      "आय": 580,
      "वाह": 581,
      "सांगित": 582,
      "समा": 583,
      "करी": 584,
      "तसेच": 585,
      "म्हणजे": 586,
      "कृ": 587,
      "केल्या": 588,
      "वून": 589,
      "म्या": 590,
      "फा": 591,
      "शो": 592,
      "पट": 593,
      "बि": 594,
      "दिस": 595,
      "ध्या": 596,
      "सुरु": 597,
      "भाजप": 598,
      "कोण": 599,
      "20": 600,
      "्रेस": 601,
      "बे": 602,
      "किंवा": 603,
      "आम": 604,
      "विरो": 605,
      "देखील": 606,
      "यांना": 607,
      "्यातील": 608,
      "विष": 609,
      "गाव": 610,
      "जय": 611,
      "चित्र": 612,
      "मृ": 613,
      "कांना": 614,
      "डॉ": 615,
      "घड": 616,
      "हात": 617,
      "शिव": 618,
      "मिळा": 619,
      "हजार": 620,
      "ूक": 621,
      "म्हणा": 622,
      "क्ती": 623,
      "विद्या": 624,
      "वाट": 625,
      "मधील": 626,
      "राज्य": 627,
      "था": 628,
      "ुन": 629,
      "प्रति": 630,
      "बाबत": 631,
      "टर": 632,
      "क्षे": 633,
      "व्यव": 634,
      "क्षण": 635,
      "वर्षा": 636,
      "ँग": 637,
      "न्य": 638,
      "लाव": 639,
      "कमी": 640,
      "नात": 641,
      "मला": 642,
      "रुग्णा": 643,
      "ळ्या": 644,
      "शह": 645,
      "आपण": 646,
      "होणार": 647,
      "मन": 648,
      "येत": 649,
      "िया": 650,
      "ग्रा": 651,
      "बु": 652,
      "म्यान": 653,
      "विचार": 654,
      "पोली": 655,
      "करण": 656,
      "निवडण": 657,
      "नाग": 658,
      "बंद": 659,
      "मद": 660,
      "कॉ": 661,
      "अभि": 662,
      "स्थि": 663,
      "ण्याचा": 664,
      "शेत": 665,
      "पोलिसा": 666,
      "ंगा": 667,
      "निर्ण": 668,
      "दरम्यान": 669,
      "काढ": 670,
      "शास": 671,
      "ज्या": 672,
      "नुसार": 673,
      "स्ता": 674,
      "ख्या": 675,
      "काँग": 676,
      "माझ": 677,
      "पोलीस": 678,
      "िकार": 679,
      "वास": 680,
      "वेग": 681,
      "ध्य": 682,
      "ंक": 683,
      "काँग्रेस": 684,
      "यात": 685,
      "प्रकार": 686,
      "कारण": 687,
      "पहि": 688,
      "चर्": 689,
      "नवी": 690,
      "नगर": 691,
      "बंध": 692,
      "ठेव": 693,
      "बस": 694,
      "पत्र": 695,
      "डो": 696,
      "असलेल्या": 697,
      "तया": 698,
      "मोर": 699,
      "योग": 700,
      "नाव": 701,
      "प्रत": 702,
      "देशा": 703,
      "फि": 704,
      "मू": 705,
      "ग्र": 706,
      "मरा": 707,
      "महाराष्ट्र": 708,
      "पै": 709,
      "सात": 710,
      "सोबत": 711,
      "योज": 712,
      "बोल": 713,
      "वापर": 714,
      "आर": 715,
      "अर": 716,
      "गत": 717,
      "स्थिती": 718,
      "एम": 719,
      "कंप": 720,
      "तीन": 721,
      "ंसाठी": 722,
      "येथे": 723,
      "असेल": 724,
      "चौ": 725,
      "लेले": 726,
      "टि": 727,
      "ंच": 728,
      "्रीय": 729,
      "येथ": 730,
      "त्यात": 731,
      "लाख": 732,
      "दिला": 733,
      "एस": 734,
      "अधिक": 735,
      "प्रे": 736,
      "करणार": 737,
      "ज्ञ": 738,
      "पाट": 739,
      "द्य": 740,
      "जु": 741,
      "वाय": 742,
      "त्वा": 743,
      "ठर": 744,
      "निक": 745,
      "पालि": 746,
      "गेल्या": 747,
      "समोर": 748,
      "खी": 749,
      "करे": 750,
      "पूर्वी": 751,
      "दिवसा": 752,
      "त्याच्या": 753,
      "भारती": 754,
      "जग": 755,
      "विरोध": 756,
      "ूर": 757,
      "ष्टी": 758,
      "ल्ली": 759,
      "चांग": 760,
      "पाह": 761,
      "त्ता": 762,
      "ट्र": 763,
      "कीय": 764,
      "साय": 765,
      "ंबर": 766,
      "जिल्ह": 767,
      "वाद": 768,
      "न्स": 769,
      "असते": 770,
      "सध्या": 771,
      "दिले": 772,
      "ोल": 773,
      "दुस": 774,
      "वृ": 775,
      "वाई": 776,
      "विधा": 777,
      "वादी": 778,
      "राष्ट्र": 779,
      "प्रश्": 780,
      "जर": 781,
      "यी": 782,
      "घात": 783,
      "सांगितले": 784,
      "पुर": 785,
      "स्वत": 786,
      "करण्यासाठी": 787,
      "शु": 788,
      "दाखल": 789,
      "त्याला": 790,
      "येणार": 791,
      "निर्णय": 792,
      "टक्": 793,
      "शिवसे": 794,
      "यत्": 795,
      "वै": 796,
      "व्हि": 797,
      "विका": 798,
      "येथील": 799,
      "प्रयत्": 800,
      "यावर": 801,
      "ूप": 802,
      "वेश": 803,
      "घटना": 804,
      "असल्याचे": 805,
      "म्हट": 806,
      "पाठ": 807,
      "भी": 808,
      "लु": 809,
      "टक": 810,
      "पेक्षा": 811,
      "मोठ": 812,
      "देण्यात": 813,
      "ट्": 814,
      "त्त": 815,
      "घ्या": 816,
      "नेत": 817,
      "श्य": 818,
      "भारतीय": 819,
      "अप": 820,
      "आल्या": 821,
      "ुकी": 822,
      "जून": 823,
      "आठ": 824,
      "यांची": 825,
      "अनु": 826,
      "म्हा": 827,
      "ठिका": 828,
      "स्प": 829,
      "वत": 830,
      "कल्": 831,
      "क्या": 832,
      "त्रा": 833,
      "पुन्हा": 834,
      "जवळ": 835,
      "दिल्ली": 836,
      "वले": 837,
      "दिवस": 838,
      "घो": 839,
      "विध": 840,
      "कोटी": 841,
      "लॉ": 842,
      "शक्य": 843,
      "हेर": 844,
      "भागा": 845,
      "म्हणाले": 846,
      "अर्थ": 847,
      "पाहि": 848,
      "वन": 849,
      "मंड": 850,
      "मृत्य": 851,
      "तीने": 852,
      "भाव": 853,
      "मोदी": 854,
      "केलं": 855,
      "त्यानंतर": 856,
      "हवा": 857,
      "महिला": 858,
      "विक": 859,
      "मुख्यमंत्री": 860,
      "खास": 861,
      "पाल": 862,
      "पणे": 863,
      "बन": 864,
      "च्छ": 865,
      "प्रयत्न": 866,
      "प्रमाण": 867,
      "कांनी": 868,
      "साम": 869,
      "गि": 870,
      "आम्ही": 871,
      "झालेल्या": 872,
      "तं": 873,
      "िकारी": 874,
      "सग": 875,
      "जिल्हा": 876,
      "पाटील": 877,
      "तयार": 878,
      "ारी": 879,
      "हु": 880,
      "त्व": 881,
      "भारता": 882,
      "वली": 883,
      "यक": 884,
      "पात": 885,
      "श्री": 886,
      "वण": 887,
      "असताना": 888,
      "पुढे": 889,
      "अर्": 890,
      "न्याया": 891,
      "प्रत्ये": 892,
      "घेऊन": 893,
      "व्यक्ती": 894,
      "मागणी": 895,
      "बाब": 896,
      "मुला": 897,
      "कॅ": 898,
      "बॉ": 899,
      "ठाकरे": 900,
      "ंतु": 901,
      "लेला": 902,
      "रण": 903,
      "१९": 904,
      "बाहेर": 905,
      "परी": 906,
      "मं": 907,
      "काळी": 908,
      "यावेळी": 909,
      "मंत्र": 910,
      "पाणी": 911,
      "धान": 912,
      "सर्वा": 913,
      "तुम": 914,
      "क्रि": 915,
      "कारा": 916,
      "होतं": 917,
      "द्दल": 918,
      "मृत्यू": 919,
      "अध्य": 920,
      "आव": 921,
      "आयु": 922,
      "श्यक": 923,
      "त्याने": 924,
      "वर्षी": 925,
      "ब्र": 926,
      "पक्ष": 927,
      "प्रकर": 928,
      "लयात": 929,
      "मित": 930,
      "अॅ": 931,
      "वरून": 932,
      "अव": 933,
      "ल्याने": 934,
      "विश्": 935,
      "इतर": 936,
      "जास्त": 937,
      "निर्माण": 938,
      "पक्षा": 939,
      "म्हाला": 940,
      "क्स": 941,
      "प्रमा": 942,
      "वरील": 943,
      "वान": 944,
      "निय": 945,
      "नाहीत": 946,
      "मिती": 947,
      "ज्ञा": 948,
      "परंतु": 949,
      "धो": 950,
      "राष्ट": 951,
      "विद्यार्थ": 952,
      "वं": 953,
      "तेव्हा": 954,
      "खाली": 955,
      "ण्याचे": 956,
      "अंत": 957,
      "कर्म": 958,
      "इत": 959,
      "करू": 960,
      "टु": 961,
      "प्रश्न": 962,
      "ठिकाणी": 963,
      "रुपये": 964,
      "फु": 965,
      "द्धा": 966,
      "जाते": 967,
      "नेते": 968,
      "क्रम": 969,
      "लेली": 970,
      "टक्के": 971,
      "कंपनी": 972,
      "केंद्र": 973,
      "१०": 974,
      "पती": 975,
      "यांचा": 976,
      "हार": 977,
      "बँ": 978,
      "पाव": 979,
      "सोड": 980,
      "कां": 981,
      "घेतला": 982,
      "व्हे": 983,
      "पाच": 984,
      "भाष": 985,
      "सुर": 986,
      "आधी": 987,
      "वेळ": 988,
      "माझ्या": 989,
      "करणे": 990,
      "न्न": 991,
      "आरोग": 992,
      "केट": 993,
      "खो": 994,
      "होईल": 995,
      "मान्य": 996,
      "उत्तर": 997,
      "खूप": 998,
      "कधी": 999,
      "क्रमा": 1000,
      "जू": 1001,
      "अध्यक्ष": 1002,
      "व्यक्त": 1003,
      "राष्ट्रवादी": 1004,
      "मोठ्या": 1005,
      "संख्या": 1006,
      "ंत्र": 1007,
      "बद्दल": 1008,
      "तुम्ही": 1009,
      "चर्चा": 1010,
      "भूमि": 1011,
      "नव्ह": 1012,
      "यर": 1013,
      "दान": 1014,
      "शेष": 1015,
      "दुर्": 1016,
      "पुणे": 1017,
      "विविध": 1018,
      "कला": 1019,
      "शोध": 1020,
      "पदा": 1021,
      "रोजी": 1022,
      "करता": 1023,
      "दारा": 1024,
      "शल": 1025,
      "अड": 1026,
      "पवार": 1027,
      "सुरुवात": 1028,
      "याची": 1029,
      "ण्यास": 1030,
      "च्च": 1031,
      "केंद": 1032,
      "बदल": 1033,
      "शासना": 1034,
      "रोबर": 1035,
      "णं": 1036,
      "विकास": 1037,
      "स्थाप": 1038,
      "प्रि": 1039,
      "बाद": 1040,
      "्टी": 1041,
      "बै": 1042,
      "आवश्यक": 1043,
      "केत": 1044,
      "राम": 1045,
      "खात": 1046,
      "महत्": 1047,
      "स्थित": 1048,
      "जाणार": 1049,
      "पोलिसांनी": 1050,
      "याचा": 1051,
      "काळात": 1052,
      "ढा": 1053,
      "मदत": 1054,
      "कऱ्या": 1055,
      "ंबा": 1056,
      "कल": 1057,
      "असतात": 1058,
      "ंधी": 1059,
      "तालु": 1060,
      "नला": 1061,
      "माध्य": 1062,
      "खु": 1063,
      "गृ": 1064,
      "सरकारने": 1065,
      "देत": 1066,
      "मधून": 1067,
      "शिक": 1068,
      "पंत": 1069,
      "घर": 1070,
      "विशेष": 1071,
      "संबंध": 1072,
      "त्याच": 1073,
      "वाज": 1074,
      "फार": 1075,
      "यांचे": 1076,
      "नागरि": 1077,
      "र्स": 1078,
      "दर्श": 1079,
      "यन": 1080,
      "त्यांची": 1081,
      "मग": 1082,
      "राष्ट्रीय": 1083,
      "बल": 1084,
      "असल्याने": 1085,
      "00": 1086,
      "गड": 1087,
      "प्रमाणे": 1088,
      "घेतली": 1089,
      "कामा": 1090,
      "कुटु": 1091,
      "बांध": 1092,
      "सहा": 1093,
      "्यु": 1094,
      "स्पर्": 1095,
      "विभागा": 1096,
      "कडा": 1097,
      "राज्या": 1098,
      "राव": 1099,
      "नुक": 1100,
      "पहिल्या": 1101,
      "रातील": 1102,
      "खरे": 1103,
      "ंडे": 1104,
      "तीत": 1105,
      "त्याचा": 1106,
      "गेले": 1107,
      "नवीन": 1108,
      "कांच्या": 1109,
      "यासाठी": 1110,
      "महापालि": 1111,
      "र्या": 1112,
      "लव": 1113,
      "केलेल्या": 1114,
      "कम": 1115,
      "पार्": 1116,
      "खेळ": 1117,
      "शिवाय": 1118,
      "अति": 1119,
      "देशात": 1120,
      "इंड": 1121,
      "न्ही": 1122,
      "कशी": 1123,
      "प्रत्येक": 1124,
      "केवळ": 1125,
      "क्षक": 1126,
      "श्र": 1127,
      "यश": 1128,
      "कारवाई": 1129,
      "माल": 1130,
      "नंद": 1131,
      "रस्": 1132,
      "पाद": 1133,
      "हीर": 1134,
      "भव": 1135,
      "करण्याची": 1136,
      "ण्याच्या": 1137,
      "रुग्ण": 1138,
      "चित्रपट": 1139,
      "तपास": 1140,
      "नोंद": 1141,
      "खर": 1142,
      "पंतप्र": 1143,
      "होऊ": 1144,
      "ड्या": 1145,
      "होतो": 1146,
      "मार्ग": 1147,
      "काल": 1148,
      "तिच्या": 1149,
      "बैठ": 1150,
      "ंचं": 1151,
      "असतो": 1152,
      "आंद": 1153,
      "बरोबर": 1154,
      "र्ट": 1155,
      "निवडणुकी": 1156,
      "संघा": 1157,
      "कार्या": 1158,
      "भारतात": 1159,
      "तून": 1160,
      "वाच": 1161,
      "पाय": 1162,
      "हॉ": 1163,
      "अमे": 1164,
      "ब्ध": 1165,
      "ष्ठ": 1166,
      "राज्यात": 1167,
      "आरोग्य": 1168,
      "उमे": 1169,
      "पद": 1170,
      "भो": 1171,
      "वला": 1172,
      "चो": 1173,
      "शिक्षण": 1174,
      "साध": 1175,
      "ल्ला": 1176,
      "आंदोल": 1177,
      "थो": 1178,
      "उपल": 1179,
      "ल्वे": 1180,
      "वू": 1181,
      "कल्प": 1182,
      "यंत्र": 1183,
      "परिस्थिती": 1184,
      "रेल्वे": 1185,
      "दर्भ": 1186,
      "उपलब्ध": 1187,
      "विरोधात": 1188,
      "शेतकऱ्या": 1189,
      "भेट": 1190,
      "करो": 1191,
      "क्षेत्र": 1192,
      "शक्यता": 1193,
      "फोटो": 1194,
      "हर": 1195,
      "ूण": 1196,
      "मॅ": 1197,
      "स्थान": 1198,
      "स्पष्ट": 1199,
      "लेख": 1200,
      "आरोप": 1201,
      "स्त्र": 1202,
      "घाल": 1203,
      "यामुळे": 1204,
      "परिष": 1205,
      "रंग": 1206,
      "ल्यानंतर": 1207,
      "तरु": 1208,
      "स्थे": 1209,
      "टाक": 1210,
      "त्यावर": 1211,
      "माजी": 1212,
      "सद": 1213,
      "मक": 1214,
      "डू": 1215,
      "मराठी": 1216,
      "कोणत्या": 1217,
      "उपस्थित": 1218,
      "फक्त": 1219,
      "निधी": 1220,
      "फोन": 1221,
      "प्त": 1222,
      "पाहिजे": 1223,
      "जाहीर": 1224,
      "्थ": 1225,
      "ह्या": 1226,
      "येईल": 1227,
      "यचे": 1228,
      "त्यांचे": 1229,
      "सिद्ध": 1230,
      "अधिकारी": 1231,
      "शिवसेने": 1232,
      "जागा": 1233,
      "त्याची": 1234,
      "धु": 1235,
      "ंडा": 1236,
      "उमेद": 1237,
      "राहि": 1238,
      "दोन्ही": 1239,
      "ळून": 1240,
      "आई": 1241,
      "जीव": 1242,
      "सिने": 1243,
      "बॅ": 1244,
      "रात्री": 1245,
      "भागात": 1246,
      "पावसा": 1247,
      "व्ही": 1248,
      "19": 1249,
      "णारे": 1250,
      "००": 1251,
      "करताना": 1252,
      "एन": 1253,
      "परिसर": 1254,
      "परा": 1255,
      "आमदार": 1256,
      "ंपासून": 1257,
      "कट": 1258,
      "वाचा": 1259,
      "आलं": 1260,
      "वारा": 1261,
      "मुली": 1262,
      "सेवा": 1263,
      "तू": 1264,
      "स्वी": 1265,
      "गार": 1266,
      "गोष्टी": 1267,
      "हिंद": 1268,
      "घटने": 1269,
      "आघा": 1270,
      "पाकि": 1271,
      "मध्य": 1272,
      "महिन्या": 1273,
      "अं": 1274,
      "करण्याचा": 1275,
      "कळ": 1276,
      "म्हटले": 1277,
      "आर्थ": 1278,
      "घोष": 1279,
      "योग्य": 1280,
      "योजना": 1281,
      "तुम्हाला": 1282,
      "पंतप्रधान": 1283,
      "लग्": 1284,
      "त्ती": 1285,
      "सोशल": 1286,
      "चारा": 1287,
      "संघ": 1288,
      "संप": 1289,
      "्यांना": 1290,
      "समिती": 1291,
      "मोठा": 1292,
      "टका": 1293,
      "वारे": 1294,
      "आघाडी": 1295,
      "फाय": 1296,
      "याबाबत": 1297,
      "देव": 1298,
      "शत": 1299,
      "साहे": 1300,
      "न्यू": 1301,
      "गं": 1302,
      "गर्": 1303,
      "दृ": 1304,
      "पद्ध": 1305,
      "आर्थिक": 1306,
      "ंह": 1307,
      "सभा": 1308,
      "परिणा": 1309,
      "इन": 1310,
      "सुद्धा": 1311,
      "बाजार": 1312,
      "अभ": 1313,
      "विजय": 1314,
      "प्रमाणात": 1315,
      "महत्त्वा": 1316,
      "क्का": 1317,
      "किती": 1318,
      "र्म": 1319,
      "सिंग": 1320,
      "एखा": 1321,
      "आपल्याला": 1322,
      "स्वा": 1323,
      "नव": 1324,
      "राज्यातील": 1325,
      "करुन": 1326,
      "गांधी": 1327,
      "जाण": 1328,
      "नये": 1329,
      "शकते": 1330,
      "संदर्भ": 1331,
      "सर्वात": 1332,
      "राजकीय": 1333,
      "एकूण": 1334,
      "ग्राम": 1335,
      "आणखी": 1336,
      "आरोपी": 1337,
      "ओळ": 1338,
      "भारत": 1339,
      "नाथ": 1340,
      "भूमिका": 1341,
      "ातून": 1342,
      "प्रकरणी": 1343,
      "आलेल्या": 1344,
      "ंडी": 1345,
      "नाच्या": 1346,
      "फड": 1347,
      "क्ट": 1348,
      "करतात": 1349,
      "हान": 1350,
      "त्यांचा": 1351,
      "जणा": 1352,
      "प्रमुख": 1353,
      "आढ": 1354,
      "घरा": 1355,
      "बहु": 1356,
      "भूमी": 1357,
      "पणा": 1358,
      "10": 1359,
      "ताप": 1360,
      "घरी": 1361,
      "स्तान": 1362,
      "ईन": 1363,
      "तक्र": 1364,
      "संपूर्ण": 1365,
      "आत्": 1366,
      "१५": 1367,
      "स्टे": 1368,
      "मीडि": 1369,
      "मै": 1370,
      "वाहन": 1371,
      "बाजू": 1372,
      "संस्था": 1373,
      "नावा": 1374,
      "याच्या": 1375,
      "शकतो": 1376,
      "झो": 1377,
      "दारी": 1378,
      "्ड": 1379,
      "वेत": 1380,
      "खेळा": 1381,
      "एल": 1382,
      "करीत": 1383,
      "ुल": 1384,
      "अमेरि": 1385,
      "गण": 1386,
      "तालुक": 1387,
      "ऑक्": 1388,
      "फी": 1389,
      "चना": 1390,
      "उद्ध": 1391,
      "अटक": 1392,
      "वढ": 1393,
      "फर": 1394,
      "ंज": 1395,
      "स्क": 1396,
      "स्या": 1397,
      "परत": 1398,
      "तुमच्या": 1399,
      "दिवशी": 1400,
      "शर": 1401,
      "मांड": 1402,
      "पर्या": 1403,
      "द्यो": 1404,
      "न्यायालया": 1405,
      "प्रवा": 1406,
      "िकाऱ्या": 1407,
      "लवकर": 1408,
      "खर्": 1409,
      "जित": 1410,
      "काश": 1411,
      "लॅ": 1412,
      "छा": 1413,
      "मंदि": 1414,
      "क्षित": 1415,
      "द्र": 1416,
      "दिसत": 1417,
      "करणाऱ्या": 1418,
      "सन": 1419,
      "वक": 1420,
      "झे": 1421,
      "धर": 1422,
      "शांत": 1423,
      "मागे": 1424,
      "लसी": 1425,
      "स्वतः": 1426,
      "चणी": 1427,
      "दला": 1428,
      "पॉ": 1429,
      "सकाळी": 1430,
      "एकदा": 1431,
      "त्याचे": 1432,
      "जण": 1433,
      "ंका": 1434,
      "लक्षात": 1435,
      "कुटुंब": 1436,
      "पं": 1437,
      "तिला": 1438,
      "्व": 1439,
      "पोहो": 1440,
      "टेल": 1441,
      "सचि": 1442,
      "मोठी": 1443,
      "ट्या": 1444,
      "कौ": 1445,
      "विधानस": 1446,
      "ओळख": 1447,
      "नेह": 1448,
      "इंग": 1449,
      "पटा": 1450,
      "क्षणा": 1451,
      "वीस": 1452,
      "जातो": 1453,
      "नव्या": 1454,
      "वण्यात": 1455,
      "नावर": 1456,
      "शब्": 1457,
      "द्वारे": 1458,
      "श्व": 1459,
      "ध्यक्ष": 1460,
      "गेली": 1461,
      "घरात": 1462,
      "मंत्र्या": 1463,
      "मंग": 1464,
      "कुमार": 1465,
      "ंकडून": 1466,
      "कार्यकर्": 1467,
      "याच": 1468,
      "दुसऱ्या": 1469,
      "नसल्या": 1470,
      "णारा": 1471,
      "गरज": 1472,
      "असता": 1473,
      "क्रिकेट": 1474,
      "भागी": 1475,
      "नाचा": 1476,
      "लढ": 1477,
      "सिंह": 1478,
      "चौकशी": 1479,
      "खरेदी": 1480,
      "केच्या": 1481,
      "अभ्या": 1482,
      "मुद्": 1483,
      "प्रवेश": 1484,
      "षी": 1485,
      "खान": 1486,
      "बात": 1487,
      "मिक": 1488,
      "समावेश": 1489,
      "उद्धव": 1490,
      "ल्ड": 1491,
      "गेला": 1492,
      "रंगा": 1493,
      "आनंद": 1494,
      "ळ्यात": 1495,
      "कृती": 1496,
      "िता": 1497,
      "मालि": 1498,
      "ंदे": 1499,
      "मुल": 1500,
      "१२": 1501,
      "व्हायर": 1502,
      "मातून": 1503,
      "यची": 1504,
      "्यू": 1505,
      "प्रकरण": 1506,
      "शय": 1507,
      "र्गत": 1508,
      "असल्याची": 1509,
      "आपले": 1510,
      "झालं": 1511,
      "जिक": 1512,
      "भु": 1513,
      "मतदार": 1514,
      "मल": 1515,
      "करणा": 1516,
      "जबाब": 1517,
      "पॅ": 1518,
      "होत्या": 1519,
      "वय": 1520,
      "वरण": 1521,
      "ट्स": 1522,
      "दूर": 1523,
      "निवडणूक": 1524,
      "पोहोच": 1525,
      "कात": 1526,
      "उत्पाद": 1527,
      "ऑनला": 1528,
      "आपली": 1529,
      "गुन्हा": 1530,
      "षा": 1531,
      "भरात": 1532,
      "रेंद्र": 1533,
      "चीन": 1534,
      "यामध्ये": 1535,
      "विरु": 1536,
      "र्ड": 1537,
      "जन्": 1538,
      "ंशी": 1539,
      "धावा": 1540,
      "णारी": 1541,
      "हून": 1542,
      "चल": 1543,
      "पाऊ": 1544,
      "नारा": 1545,
      "गिरी": 1546,
      "सै": 1547,
      "धे": 1548,
      "परिणाम": 1549,
      "लहान": 1550,
      "अग": 1551,
      "लय": 1552,
      "an": 1553,
      "शेतकरी": 1554,
      "य़ा": 1555,
      "सिक": 1556,
      "पोलिस": 1557,
      "पत्": 1558,
      "शाळा": 1559,
      "गुन्": 1560,
      "ठो": 1561,
      "आधार": 1562,
      "फडण": 1563,
      "म्हटलं": 1564,
      "साहेब": 1565,
      "देशातील": 1566,
      "उघड": 1567,
      "संजय": 1568,
      "राजे": 1569,
      "धिक": 1570,
      "सत्ता": 1571,
      "चंद्र": 1572,
      "जिल्ह्यातील": 1573,
      "शिवसेना": 1574,
      "ंती": 1575,
      "अन": 1576,
      "मता": 1577,
      "प्ट": 1578,
      "लागले": 1579,
      "15": 1580,
      "अन्य": 1581,
      "डिओ": 1582,
      "शेव": 1583,
      "षण": 1584,
      "वृत्त": 1585,
      "दू": 1586,
      "अजून": 1587,
      "याला": 1588,
      "पैकी": 1589,
      "बळ": 1590,
      "लॉकडा": 1591,
      "पथ": 1592,
      "चित्रपटा": 1593,
      "समज": 1594,
      "लोकांना": 1595,
      "पाहा": 1596,
      "ट्वि": 1597,
      "सान": 1598,
      "बघ": 1599,
      "युक्त": 1600,
      "हित": 1601,
      "टीम": 1602,
      "आमच्या": 1603,
      "कांची": 1604,
      "विरुद्ध": 1605,
      "कोणत्याही": 1606,
      "विषयी": 1607,
      "करावी": 1608,
      "पैसे": 1609,
      "खड": 1610,
      "प्रशासना": 1611,
      "ात्": 1612,
      "धन": 1613,
      "क्टर": 1614,
      "१८": 1615,
      "मंडळा": 1616,
      "जाईल": 1617,
      "दोघा": 1618,
      "संत": 1619,
      "टीका": 1620,
      "वेळा": 1621,
      "मार्गा": 1622,
      "येते": 1623,
      "दिलेल्या": 1624,
      "नामा": 1625,
      "असल्याचं": 1626,
      "ग्राह": 1627,
      "कर्मचा": 1628,
      "करावा": 1629,
      "विश्वास": 1630,
      "नरेंद्र": 1631,
      "बंदी": 1632,
      "हन": 1633,
      "तिक": 1634,
      "देशी": 1635,
      "दीप": 1636,
      "करोना": 1637,
      "सामा": 1638,
      "टल": 1639,
      "गेल": 1640,
      "पुढील": 1641,
      "आपला": 1642,
      "संदर्भात": 1643,
      "कायम": 1644,
      "सोम": 1645,
      "सरा": 1646,
      "अगदी": 1647,
      "माध्यमातून": 1648,
      "संधी": 1649,
      "सांगितलं": 1650,
      "घेण्यात": 1651,
      "दिवा": 1652,
      "करतो": 1653,
      "उद्यो": 1654,
      "लिहि": 1655,
      "कं": 1656,
      "यचा": 1657,
      "ऑफ": 1658,
      "उद्": 1659,
      "काला": 1660,
      "शकतात": 1661,
      "सल": 1662,
      "र्मा": 1663,
      "घोषणा": 1664,
      "सारख्या": 1665,
      "अखे": 1666,
      "लंदा": 1667,
      "गंभी": 1668,
      "मती": 1669,
      "मेंट": 1670,
      "रोज": 1671,
      "गंभीर": 1672,
      "ar": 1673,
      "पुरव": 1674,
      "मुंबईत": 1675,
      "संबंधित": 1676,
      "लै": 1677,
      "पाकिस्तान": 1678,
      "खासदार": 1679,
      "स्य": 1680,
      "जिल्ह्यात": 1681,
      "मारे": 1682,
      "निल": 1683,
      "त्यासाठी": 1684,
      "शरद": 1685,
      "विरोधी": 1686,
      "शेअर": 1687,
      "प्रो": 1688,
      "आठवड": 1689,
      "in": 1690,
      "जिंक": 1691,
      "दिल्या": 1692,
      "खर्च": 1693,
      "याचे": 1694,
      "गृह": 1695,
      "कर्मचार": 1696,
      "ष्ण": 1697,
      "अर्ज": 1698,
      "एकत्र": 1699,
      "जातात": 1700,
      "ळू": 1701,
      "राहुल": 1702,
      "वॉ": 1703,
      "सत": 1704,
      "खेळाडू": 1705,
      "जाने": 1706,
      "शरी": 1707,
      "सर्ग": 1708,
      "नेहमी": 1709,
      "रवि": 1710,
      "वेद": 1711,
      "घेतले": 1712,
      "प्प": 1713,
      "१४": 1714,
      "गुंत": 1715,
      "केंद्रीय": 1716,
      "ंता": 1717,
      "उच्च": 1718,
      "ळं": 1719,
      "जेव्हा": 1720,
      "स्ती": 1721,
      "टन": 1722,
      "आयो": 1723,
      "ंदर": 1724,
      "12": 1725,
      "वाल": 1726,
      "लस": 1727,
      "दहा": 1728,
      "पदार": 1729,
      "ंटर": 1730,
      "अधिकाऱ्या": 1731,
      "बाध": 1732,
      "द्द": 1733,
      "थांब": 1734,
      "यत": 1735,
      "आदेश": 1736,
      "ताच": 1737,
      "कुठ": 1738,
      "फॉ": 1739,
      "होऊन": 1740,
      "आयुष": 1741,
      "गुरु": 1742,
      "हाय": 1743,
      "फडणवीस": 1744,
      "जोर": 1745,
      "बार": 1746,
      "मिळत": 1747,
      "लागेल": 1748,
      "त्यावेळी": 1749,
      "निमि": 1750,
      "च्छा": 1751,
      "पार्श्व": 1752,
      "झि": 1753,
      "शकता": 1754,
      "अहवा": 1755,
      "माना": 1756,
      "धक्का": 1757,
      "बैठकी": 1758,
      "काने": 1759,
      "क्रिया": 1760,
      "पोस्ट": 1761,
      "आवड": 1762,
      "सर्वो": 1763,
      "वाता": 1764,
      "दर्शन": 1765,
      "णाला": 1766,
      "प्रत्य": 1767,
      "करण्याचे": 1768,
      "वणूक": 1769,
      "लागली": 1770,
      "कंपन्या": 1771,
      "उपचार": 1772,
      "प्रदेश": 1773,
      "सिनेमा": 1774,
      "on": 1775,
      "शहरा": 1776,
      "नाशिक": 1777,
      "वानगी": 1778,
      "गै": 1779,
      "तालुक्यातील": 1780,
      "गाडी": 1781,
      "सगळ्या": 1782,
      "पत्नी": 1783,
      "खंड": 1784,
      "मिळाली": 1785,
      "इंडिया": 1786,
      "दम": 1787,
      "चर": 1788,
      "मार्च": 1789,
      "ँड": 1790,
      "पारी": 1791,
      "सामान्य": 1792,
      "विद्यार्थ्या": 1793,
      "लागला": 1794,
      "सव": 1795,
      "प्रकाश": 1796,
      "सेल": 1797,
      "फ्": 1798,
      "ंपूर्वी": 1799,
      "साव": 1800,
      "क्की": 1801,
      "कोणी": 1802,
      "वाडी": 1803,
      "दिसून": 1804,
      "कर्मचाऱ्या": 1805,
      "भूमीवर": 1806,
      "सभे": 1807,
      "श्वर": 1808,
      "यू": 1809,
      "कांत": 1810,
      "रक्": 1811,
      "महाराष्ट": 1812,
      "बरे": 1813,
      "याने": 1814,
      "प्रसिद्ध": 1815,
      "जरा": 1816,
      "साद": 1817,
      "ौर": 1818,
      "स्वर": 1819,
      "जाऊ": 1820,
      "आहोत": 1821,
      "सामना": 1822,
      "इं": 1823,
      "प्रथ": 1824,
      "दायक": 1825,
      "कारी": 1826,
      "तम": 1827,
      "धिकारी": 1828,
      "काळजी": 1829,
      "ल्स": 1830,
      "कर्ज": 1831,
      "भाजपा": 1832,
      "जोड": 1833,
      "शहरात": 1834,
      "तिने": 1835,
      "३०": 1836,
      "अभ्यास": 1837,
      "औष": 1838,
      "जल": 1839,
      "तिहा": 1840,
      "ळेल": 1841,
      "परवानगी": 1842,
      "आतापर्यंत": 1843,
      "रुग्णालयात": 1844,
      "कण": 1845,
      "मागील": 1846,
      "कल्या": 1847,
      "पीसी": 1848,
      "नाला": 1849,
      "क्षि": 1850,
      "बाई": 1851,
      "महाराष्ट्रा": 1852,
      "लॉकडाऊन": 1853,
      "तक्रार": 1854,
      "करावे": 1855,
      "शाळे": 1856,
      "५०": 1857,
      "बाबा": 1858,
      "परिसरात": 1859,
      "साहि": 1860,
      "बाळा": 1861,
      "लंड": 1862,
      "पंचा": 1863,
      "निश्": 1864,
      "रावर": 1865,
      "रिक्त": 1866,
      "लागू": 1867,
      "सळ": 1868,
      "नर": 1869,
      "प्रवास": 1870,
      "गणे": 1871,
      "तिथे": 1872,
      "वण्यासाठी": 1873,
      "at": 1874,
      "पुस्त": 1875,
      "११": 1876,
      "अखेर": 1877,
      "स्तू": 1878,
      "तसं": 1879,
      "जनते": 1880,
      "नुकसान": 1881,
      "सामाजिक": 1882,
      "देऊन": 1883,
      "18": 1884,
      "्स": 1885,
      "वणी": 1886,
      "राब": 1887,
      "खि": 1888,
      "यचं": 1889,
      "स्कार": 1890,
      "स्पर्धे": 1891,
      "मोबा": 1892,
      "नेत्री": 1893,
      "ल्यावर": 1894,
      "उल्": 1895,
      "अभिनेत्री": 1896,
      "छो": 1897,
      "आढळ": 1898,
      "वेळे": 1899,
      "म्प": 1900,
      "नका": 1901,
      "आवाहन": 1902,
      "आंदोलन": 1903,
      "ट्रे": 1904,
      "थी": 1905,
      "एवढ": 1906,
      "नाची": 1907,
      "अत्य": 1908,
      "न्याय": 1909,
      "र्य": 1910,
      "पूर्व": 1911,
      "चांगले": 1912,
      "21": 1913,
      "करण्यास": 1914,
      "न्यात": 1915,
      "मोठे": 1916,
      "दुसरी": 1917,
      "विक्री": 1918,
      "चु": 1919,
      "साई": 1920,
      "करते": 1921,
      "मॉ": 1922,
      "संगी": 1923,
      "वर्षे": 1924,
      "लाच": 1925,
      "प्रिय": 1926,
      "तत्": 1927,
      "बजा": 1928,
      "ंमुळे": 1929,
      "िम": 1930,
      "पुरा": 1931,
      "or": 1932,
      "यंदा": 1933,
      "कू": 1934,
      "सुमारे": 1935,
      "लर": 1936,
      "अजित": 1937,
      "वैद्य": 1938,
      "दह": 1939,
      "जाऊन": 1940,
      "थेट": 1941,
      "व्हिडिओ": 1942,
      "14": 1943,
      "रीत": 1944,
      "एफ": 1945,
      "१६": 1946,
      "मीर": 1947,
      "er": 1948,
      "बाल": 1949,
      "डीओ": 1950,
      "वर्त": 1951,
      "गुन्हे": 1952,
      "ंकडे": 1953,
      "वाढत": 1954,
      "समाज": 1955,
      "सादर": 1956,
      "पार्श्वभूमीवर": 1957,
      "लग्न": 1958,
      "वाहत": 1959,
      "रोख": 1960,
      "विधानसभा": 1961,
      "सुविधा": 1962,
      "वेंद्र": 1963,
      "नेम": 1964,
      "महाराष्ट्रात": 1965,
      "दिग्": 1966,
      "मीडियावर": 1967,
      "मारा": 1968,
      "सरी": 1969,
      "गुण": 1970,
      "चालक": 1971,
      "वेगवेग": 1972,
      "तब्": 1973,
      "विड": 1974,
      "झाल्यानंतर": 1975,
      "न्यूज": 1976,
      "एखाद्या": 1977,
      "परीक्षा": 1978,
      "नेट": 1979,
      "गावा": 1980,
      "आव्हा": 1981,
      "मज": 1982,
      "दावा": 1983,
      "कर्मचारी": 1984,
      "संख": 1985,
      "आंतर": 1986,
      "पश्": 1987,
      "णू": 1988,
      "अधि": 1989,
      "कारणा": 1990,
      "नियंत्र": 1991,
      "मृत": 1992,
      "राऊ": 1993,
      "संस्थे": 1994,
      "केंद्रा": 1995,
      "विभाग": 1996,
      "अंदा": 1997,
      "्याने": 1998,
      "शै": 1999,
      "शहरातील": 2000,
      "स्थानिक": 2001,
      "धव": 2002,
      "प्रतिक": 2003,
      "संपर्": 2004,
      "वातावरण": 2005,
      "ज्ञान": 2006,
      "१७": 2007,
      "वूड": 2008,
      "प्रथम": 2009,
      "मंगळ": 2010,
      "सूचना": 2011,
      "असतील": 2012,
      "कांचा": 2013,
      "समाजा": 2014,
      "अल": 2015,
      "एकमे": 2016,
      "तार": 2017,
      "मनो": 2018,
      "कुठे": 2019,
      "मिळेल": 2020,
      "आदी": 2021,
      "समस्या": 2022,
      "अत्यंत": 2023,
      "लाल": 2024,
      "किंग": 2025,
      "तुल": 2026,
      "ऑक्टो": 2027,
      "जख": 2028,
      "गट": 2029,
      "दौ": 2030,
      "ंसह": 2031,
      "मते": 2032,
      "असलेले": 2033,
      "किलो": 2034,
      "शील": 2035,
      "अद्या": 2036,
      "भूत": 2037,
      "अंतर्गत": 2038,
      "कप": 2039,
      "्रि": 2040,
      "शकत": 2041,
      "शब्द": 2042,
      "पुरु": 2043,
      "अधिकार": 2044,
      "आयुक्त": 2045,
      "उतर": 2046,
      "अपघात": 2047,
      "तब्बल": 2048,
      "पुरवठा": 2049,
      "सुधार": 2050,
      "एप्रि": 2051,
      "गावात": 2052,
      "क्ता": 2053,
      "इन्": 2054,
      "प्रतिनिधी": 2055,
      "चांगली": 2056,
      "आत्मह": 2057,
      "व्हिडीओ": 2058,
      "मिनि": 2059,
      "एप्रिल": 2060,
      "ब्रि": 2061,
      "लाय": 2062,
      "विद्यापी": 2063,
      "आश्": 2064,
      "दहशत": 2065,
      "जरी": 2066,
      "धारण": 2067,
      "राणे": 2068,
      "मीटर": 2069,
      "निश्चित": 2070,
      "30": 2071,
      "तास": 2072,
      "इथे": 2073,
      "शं": 2074,
      "सापड": 2075,
      "नोव्हे": 2076,
      "महिन्यात": 2077,
      "अद्याप": 2078,
      "पहा": 2079,
      "जानेवारी": 2080,
      "आम्हाला": 2081,
      "त्ते": 2082,
      "सारखे": 2083,
      "कोल्": 2084,
      "पाऊस": 2085,
      "उपाय": 2086,
      "नक्की": 2087,
      "कांचे": 2088,
      "काळा": 2089,
      "ऑक्टोबर": 2090,
      "सां": 2091,
      "कुल": 2092,
      "२५": 2093,
      "र्ती": 2094,
      "पोर्ट": 2095,
      "उल": 2096,
      "कसे": 2097,
      "व्यवस्था": 2098,
      "गोष्ट": 2099,
      "हत्या": 2100,
      "बारा": 2101,
      "ीत": 2102,
      "सुट": 2103,
      "स्ट्रे": 2104,
      "ताब": 2105,
      "असणार": 2106,
      "पत्रकार": 2107,
      "असेही": 2108,
      "जबाबदारी": 2109,
      "निवडणुकीत": 2110,
      "लंब": 2111,
      "पसर": 2112,
      "वाहतूक": 2113,
      "नक": 2114,
      "कालाव": 2115,
      "शिवा": 2116,
      "विण्यात": 2117,
      "फिर": 2118,
      "स्मार": 2119,
      "चर्चे": 2120,
      "फत": 2121,
      "मराठा": 2122,
      "करायला": 2123,
      "कालावधी": 2124,
      "टॅ": 2125,
      "असल्याचा": 2126,
      "शहर": 2127,
      "प्रेम": 2128,
      "कार्यक्रमा": 2129,
      "सरकारी": 2130,
      "गस्ट": 2131,
      "लाभ": 2132,
      "शनि": 2133,
      "50": 2134,
      "कायद्या": 2135,
      "निरी": 2136,
      "ात्मक": 2137,
      "वती": 2138,
      "आंब": 2139,
      "वाजता": 2140,
      "इमार": 2141,
      "नोव्हेंबर": 2142,
      "वस्तू": 2143,
      "पंच": 2144,
      "सर्वाधिक": 2145,
      "जुलै": 2146,
      "गर्दी": 2147,
      "मिळणार": 2148,
      "राजकारण": 2149,
      "ठाणे": 2150,
      "देवेंद्र": 2151,
      "पिं": 2152,
      "प्रकरणा": 2153,
      "विमान": 2154,
      "चव्हा": 2155,
      "प्रस्ता": 2156,
      "शिंदे": 2157,
      "ल्यास": 2158,
      "नेतृ": 2159,
      "संघात": 2160,
      "संख्ये": 2161,
      "नेता": 2162,
      "१३": 2163,
      "वाड": 2164,
      "राजी": 2165,
      "मर": 2166,
      "मूल": 2167,
      "सौ": 2168,
      "वर्ग": 2169,
      "ब्रु": 2170,
      "टाळ": 2171,
      "नगरसे": 2172,
      "केने": 2173,
      "ऑगस्ट": 2174,
      "हाता": 2175,
      "बुध": 2176,
      "२००": 2177,
      "यानंतर": 2178,
      "कोणती": 2179,
      "वीज": 2180,
      "होण्याची": 2181,
      "लात": 2182,
      "प्रकारे": 2183,
      "समु": 2184,
      "पाड": 2185,
      "धाव": 2186,
      "येतो": 2187,
      "प्रत्यक्ष": 2188,
      "णाया": 2189,
      "सरकारच्या": 2190,
      "सदस्य": 2191,
      "संर": 2192,
      "दक्षि": 2193,
      "यं": 2194,
      "शुक्र": 2195,
      "तोड": 2196,
      "पातळी": 2197,
      "क्षेत्रात": 2198,
      "चंड": 2199,
      "सार्व": 2200,
      "घु": 2201,
      "न्यायालयाने": 2202,
      "दै": 2203,
      "तरीही": 2204,
      "लच्या": 2205,
      "ंदी": 2206,
      "प्टे": 2207,
      "रद्द": 2208,
      "कृषी": 2209,
      "हिवा": 2210,
      "डिसे": 2211,
      "नियम": 2212,
      "जन्म": 2213,
      "धोका": 2214,
      "चिम": 2215,
      "इंग्": 2216,
      "त्रास": 2217,
      "नागपूर": 2218,
      "शेती": 2219,
      "मनात": 2220,
      "मुख्यमंत्र्या": 2221,
      "टिव्ह": 2222,
      "निर्मिती": 2223,
      "स्थापन": 2224,
      "परिषदे": 2225,
      "फायदा": 2226,
      "योजित": 2227,
      "महत्वा": 2228,
      "जमा": 2229,
      "स्टा": 2230,
      "योजने": 2231,
      "प्रचंड": 2232,
      "साली": 2233,
      "वलं": 2234,
      "जीवन": 2235,
      "सप्टे": 2236,
      "मंडळ": 2237,
      "तयारी": 2238,
      "प्रक्रिया": 2239,
      "मीन": 2240,
      "भाजी": 2241,
      "येऊ": 2242,
      "विना": 2243,
      "जोरदार": 2244,
      "वैद्यकीय": 2245,
      "11": 2246,
      "दृष्टी": 2247,
      "नाचे": 2248,
      "मीण": 2249,
      "स्त्री": 2250,
      "वित": 2251,
      "डिसेंबर": 2252,
      "सहभागी": 2253,
      "संशोध": 2254,
      "नदी": 2255,
      "खासगी": 2256,
      "ग्रामीण": 2257,
      "उपा": 2258,
      "ल्ल्या": 2259,
      "प्पा": 2260,
      "विश्व": 2261,
      "एसटी": 2262,
      "जवळपास": 2263,
      "अल्": 2264,
      "राय": 2265,
      "सप्टेंबर": 2266,
      "ळगाव": 2267,
      "महिले": 2268,
      "पुन": 2269,
      "होतात": 2270,
      "पत": 2271,
      "वतीने": 2272,
      "मिनी": 2273,
      "भ्र": 2274,
      "सुनाव": 2275,
      "आंतरराष्ट्रीय": 2276,
      "लागणार": 2277,
      "हवामान": 2278,
      "दरा": 2279,
      "है": 2280,
      "बू": 2281,
      "फेब्रु": 2282,
      "काढून": 2283,
      "मंत्रा": 2284,
      "उत्तम": 2285,
      "उभार": 2286,
      "लवकरच": 2287,
      "तरुणा": 2288,
      "फेब्रुवारी": 2289,
      "पद्धतीने": 2290,
      "भाऊ": 2291,
      "वरुन": 2292,
      "जखमी": 2293,
      "जारा": 2294,
      "राऊत": 2295,
      "कोविड": 2296,
      "स्वच्छ": 2297,
      "फॅ": 2298,
      "लोकसभा": 2299,
      "चालू": 2300,
      "कले": 2301,
      "डॉक्ट": 2302,
      "पर्य": 2303,
      "शिष्ट": 2304,
      "ठेवा": 2305,
      "ट्रोल": 2306,
      "जाती": 2307,
      "नकार": 2308,
      "गरजे": 2309,
      "al": 2310,
      "चव्हाण": 2311,
      "शासकीय": 2312,
      "लिक": 2313,
      "सीबी": 2314,
      "र्ष": 2315,
      "काँग्रेसचे": 2316,
      "्याच्या": 2317,
      "हल्ला": 2318,
      "असले": 2319,
      "्यावर": 2320,
      "असो": 2321,
      "पिंपरी": 2322,
      "जाणून": 2323,
      "ध्": 2324,
      "२१": 2325,
      "रक्कम": 2326,
      "अतिशय": 2327,
      "यम": 2328,
      "माणसा": 2329,
      "साहित्य": 2330,
      "अडचणी": 2331,
      "टिंग": 2332,
      "पाळ": 2333,
      "सरकारला": 2334,
      "विषय": 2335,
      "पाहायला": 2336,
      "दिलं": 2337,
      "म्हणतात": 2338,
      "नागर": 2339,
      "वाटत": 2340,
      "बला": 2341,
      "केल्यानंतर": 2342,
      "यशस्वी": 2343,
      "ंपै": 2344,
      "दुका": 2345,
      "16": 2346,
      "मिळाला": 2347,
      "संब": 2348,
      "गळ": 2349,
      "पाहून": 2350,
      "कसा": 2351,
      "टिक": 2352,
      "घडली": 2353,
      "गारा": 2354,
      "ंपैकी": 2355,
      "सचिन": 2356,
      "वाहि": 2357,
      "माहितीनुसार": 2358,
      "es": 2359,
      "17": 2360,
      "शक्ती": 2361,
      "व्हायरल": 2362,
      "कायदा": 2363,
      "बॉलि": 2364,
      "वक्त": 2365,
      "औरंगा": 2366,
      "माझा": 2367,
      "जारी": 2368,
      "२४": 2369,
      "शिवाजी": 2370,
      "मण": 2371,
      "षे": 2372,
      "ज्ये": 2373,
      "वेल": 2374,
      "रॉ": 2375,
      "इतिहा": 2376,
      "बैठक": 2377,
      "निवडणु": 2378,
      "25": 2379,
      "रूप": 2380,
      "कार्यक्रम": 2381,
      "बँक": 2382,
      "नार": 2383,
      "क्यात": 2384,
      "नै": 2385,
      "कून": 2386,
      "तंत्र": 2387,
      "क्शन": 2388,
      "इश": 2389,
      "्रिया": 2390,
      "हू": 2391,
      "व्यवसाय": 2392,
      "मित्र": 2393,
      "विद्यार्थी": 2394,
      "कोल्हा": 2395,
      "वल": 2396,
      "किंमत": 2397,
      "राहणार": 2398,
      "अर्थात": 2399,
      "यादी": 2400,
      "उड": 2401,
      "पर्याय": 2402,
      "अनिल": 2403,
      "सोमवारी": 2404,
      "साधारण": 2405,
      "उदा": 2406,
      "शाही": 2407,
      "उर्": 2408,
      "ठाण्यात": 2409,
      "बद": 2410,
      "झाल्याने": 2411,
      "राख": 2412,
      "माय": 2413,
      "देण्यासाठी": 2414,
      "शासन": 2415,
      "तपासणी": 2416,
      "देशमुख": 2417,
      "कामे": 2418,
      "नागरिक": 2419,
      "कल्पना": 2420,
      "सला": 2421,
      "म्हणजेच": 2422,
      "बाधित": 2423,
      "विषा": 2424,
      "आग": 2425,
      "भावना": 2426,
      "मोर्": 2427,
      "ऐव": 2428,
      "अॅप": 2429,
      "सुरक्षा": 2430,
      "अक्ष": 2431,
      "अनुभव": 2432,
      "नियमा": 2433,
      "एमपीसी": 2434,
      "सर्वोच्च": 2435,
      "क्रा": 2436,
      "मिळाले": 2437,
      "मनसे": 2438,
      "डीने": 2439,
      "ेड": 2440,
      "महाविद्या": 2441,
      "स्ट्रेलि": 2442,
      "वाला": 2443,
      "शहा": 2444,
      "बोलताना": 2445,
      "उद्या": 2446,
      "24": 2447,
      "व्र": 2448,
      "पश्चिम": 2449,
      "गाने": 2450,
      "यांच्यावर": 2451,
      "यातील": 2452,
      "रिक": 2453,
      "झालेले": 2454,
      "गतिक": 2455,
      "प्रभा": 2456,
      "येतात": 2457,
      "चिंच": 2458,
      "प्राप्त": 2459,
      "कामगिरी": 2460,
      "अह": 2461,
      "इशारा": 2462,
      "क्ति": 2463,
      "उमेदवार": 2464,
      "ऑस्ट्रेलि": 2465,
      "लांब": 2466,
      "नवा": 2467,
      "ताब्यात": 2468,
      "शेवट": 2469,
      "प्रकरणात": 2470,
      "आयपी": 2471,
      "लीन": 2472,
      "औरंगाबाद": 2473,
      "वृत्ती": 2474,
      "नाई": 2475,
      "ट्विट": 2476,
      "कसो": 2477,
      "चेह": 2478,
      "मेल": 2479,
      "क्क": 2480,
      "तसंच": 2481,
      "सीसी": 2482,
      "भाषा": 2483,
      "वर्षीय": 2484,
      "ल्याचे": 2485,
      "नासाठी": 2486,
      "उद्योग": 2487,
      "करणारे": 2488,
      "सार्वज": 2489,
      "प्रकल्": 2490,
      "स्वात": 2491,
      "आत": 2492,
      "समर्थ": 2493,
      "महापालिका": 2494,
      "मुक्त": 2495,
      "टप्प": 2496,
      "प्रतिक्रिया": 2497,
      "नोकरी": 2498,
      "कोर": 2499,
      "वाना": 2500,
      "मुंडे": 2501,
      "स्वप्": 2502,
      "जागतिक": 2503,
      "गती": 2504,
      "घेता": 2505,
      "काश्": 2506,
      "वीर": 2507,
      "प्रेक्ष": 2508,
      "सामन": 2509,
      "नियंत्रण": 2510,
      "झालेली": 2511,
      "ज्येष्ठ": 2512,
      "ृत": 2513,
      "अंदाज": 2514,
      "नागरिकांना": 2515,
      "सामन्यात": 2516,
      "जाधव": 2517,
      "नव्हे": 2518,
      "माझी": 2519,
      "सार्वजनिक": 2520,
      "पहिला": 2521,
      "येऊन": 2522,
      "कसोटी": 2523,
      "यां": 2524,
      "असल्यामुळे": 2525,
      "कल्याण": 2526,
      "ऑनलाईन": 2527,
      "कोणता": 2528,
      "लागते": 2529,
      "क्री": 2530,
      "राट": 2531,
      "प्रवाशा": 2532,
      "संघटना": 2533,
      "येत्या": 2534,
      "दुपारी": 2535,
      "उद": 2536,
      "डेल": 2537,
      "हळू": 2538,
      "बोलत": 2539,
      "द्धी": 2540,
      "13": 2541,
      "संवाद": 2542,
      "लाखा": 2543,
      "इंग्लंड": 2544,
      "वडि": 2545,
      "विले": 2546,
      "डॉक्टरा": 2547,
      "र्फे": 2548,
      "कोरोनाच्या": 2549,
      "रोड": 2550,
      "याचि": 2551,
      "कुटुंबा": 2552,
      "अहवाल": 2553,
      "टीव्ही": 2554,
      "देणार": 2555,
      "विषाणू": 2556,
      "मोबाईल": 2557,
      "संघटने": 2558,
      "नव्हते": 2559,
      "बॉलिवूड": 2560,
      "मिर": 2561,
      "य्य": 2562,
      "ंढ": 2563,
      "आयोजित": 2564,
      "बातमी": 2565,
      "संस्": 2566,
      "दक्षिण": 2567,
      "राही": 2568,
      "पालक": 2569,
      "बैठकीत": 2570,
      "हिंदू": 2571,
      "ळीत": 2572,
      "टॉ": 2573,
      "भाजपचे": 2574,
      "धि": 2575,
      "वादा": 2576,
      "रविवारी": 2577,
      "गुंतवणूक": 2578,
      "प्रकल्प": 2579,
      "विधान": 2580,
      "एच": 2581,
      "फू": 2582,
      "न्यायालयात": 2583,
      "भांड": 2584,
      "मुंबईतील": 2585,
      "गामी": 2586,
      "वंत": 2587,
      "हल": 2588,
      "चाचणी": 2589,
      "सुरुवाती": 2590,
      "नग": 2591,
      "कोर्": 2592,
      "धर्म": 2593,
      "स्पि": 2594,
      "कार्ड": 2595,
      "लढा": 2596,
      "ब्रा": 2597,
      "घेऊ": 2598,
      "उत्प": 2599,
      "तेल": 2600,
      "तेच": 2601,
      "नसल्याने": 2602,
      "सतत": 2603,
      "ंभ": 2604,
      "त्यानुसार": 2605,
      "आत्महत्या": 2606,
      "वर्षात": 2607,
      "लू": 2608,
      "श्या": 2609,
      "हवे": 2610,
      "मंगळवारी": 2611,
      "केल": 2612,
      "मंत्रि": 2613,
      "फलंदा": 2614,
      "काच्या": 2615,
      "वारं": 2616,
      "en": 2617,
      "जरात": 2618,
      "राजा": 2619,
      "सुंदर": 2620,
      "ऑनलाइन": 2621,
      "अंतिम": 2622,
      "संकट": 2623,
      "मर्या": 2624,
      "देऊ": 2625,
      "बुक": 2626,
      "स्पर्धा": 2627,
      "नको": 2628,
      "पाला": 2629,
      "असलेला": 2630,
      "बुधवारी": 2631,
      "पुरस्कार": 2632,
      "स्मार्ट": 2633,
      "शुक्रवारी": 2634,
      "लागत": 2635,
      "करु": 2636,
      "णावर": 2637,
      "नाटक": 2638,
      "भविष": 2639,
      "मैदा": 2640,
      "संपर्क": 2641,
      "इट": 2642,
      "कथा": 2643,
      "उचल": 2644,
      "असलेली": 2645,
      "वेगवेगळ्या": 2646,
      "केलेली": 2647,
      "कर्ण": 2648,
      "क्षेत्रा": 2649,
      "पेट्रोल": 2650,
      "अफ": 2651,
      "होणाऱ्या": 2652,
      "इथ": 2653,
      "दर्शक": 2654,
      "एकाच": 2655,
      "अन्न": 2656,
      "अचा": 2657,
      "हीत": 2658,
      "वल्या": 2659,
      "क्रे": 2660,
      "चिंचवड": 2661,
      "व्हर": 2662,
      "पवारा": 2663,
      "स्वातंत्र": 2664,
      "नच्या": 2665,
      "त्यातून": 2666,
      "यापूर्वी": 2667,
      "चांगला": 2668,
      "मंदिर": 2669,
      "निघा": 2670,
      "तासा": 2671,
      "कुणी": 2672,
      "गुजरात": 2673,
      "स्फो": 2674,
      "ऐवजी": 2675,
      "गॅ": 2676,
      "उमेदवारा": 2677,
      "फेस": 2678,
      "परिषद": 2679,
      "टक्क्या": 2680,
      "पृ": 2681,
      "नव्हती": 2682,
      "सुमारा": 2683,
      "ग्रस्त": 2684,
      "ग्रह": 2685,
      "गैर": 2686,
      "कोर्टा": 2687,
      "रोजग": 2688,
      "व्याव": 2689,
      "अचानक": 2690,
      "निरीक्षक": 2691,
      "नाते": 2692,
      "मुद": 2693,
      "भीती": 2694,
      "वता": 2695,
      "कोकण": 2696,
      "रुग्णालया": 2697,
      "शोक": 2698,
      "झालेला": 2699,
      "डॉक्टर": 2700,
      "मुलगा": 2701,
      "केलेले": 2702,
      "ग्री": 2703,
      "चुकी": 2704,
      "येणाऱ्या": 2705,
      "लाही": 2706,
      "जिल्ह्या": 2707,
      "भरा": 2708,
      "ंग्रेस": 2709,
      "यल": 2710,
      "स्थितीत": 2711,
      "लावून": 2712,
      "कै": 2713,
      "आदि": 2714,
      "नाम": 2715,
      "उपचारा": 2716,
      "बाजारात": 2717,
      "मतदान": 2718,
      "खल": 2719,
      "रुग्णांची": 2720,
      "संग": 2721,
      "ड्र": 2722,
      "कच": 2723,
      "नाने": 2724,
      "म्हणत": 2725,
      "रस्त्यावर": 2726,
      "कोणतीही": 2727,
      "सुमारास": 2728,
      "चॅ": 2729,
      "सामन्या": 2730,
      "केचे": 2731,
      "इस": 2732,
      "ढी": 2733,
      "संचालक": 2734,
      "कार्": 2735,
      "मूळ": 2736,
      "बाय": 2737,
      "विला": 2738,
      "शिक्षक": 2739,
      "हॅ": 2740,
      "अन्": 2741,
      "पुरे": 2742,
      "वार्": 2743,
      "रिया": 2744,
      "त्यांच्यावर": 2745,
      "तेथे": 2746,
      "सुरक्षित": 2747,
      "माने": 2748,
      "सोह": 2749,
      "वाटते": 2750,
      "स्वीकार": 2751,
      "शर्मा": 2752,
      "कार्यालया": 2753,
      "जमिनी": 2754,
      "जातील": 2755,
      "करण्याच्या": 2756,
      "इल": 2757,
      "नील": 2758,
      "स्टार": 2759,
      "हाती": 2760,
      "सगळे": 2761,
      "विराट": 2762,
      "श्रे": 2763,
      "अली": 2764,
      "वडिला": 2765,
      "भारताच्या": 2766,
      "भारतातील": 2767,
      "खळ": 2768,
      "दास": 2769,
      "दिवसांपासून": 2770,
      "प्री": 2771,
      "उठ": 2772,
      "बाळ": 2773,
      "शू": 2774,
      "ट्रो": 2775,
      "गणेश": 2776,
      "२२": 2777,
      "काग": 2778,
      "मूर्ती": 2779,
      "र्न": 2780,
      "इच्छा": 2781,
      "बाजूला": 2782,
      "उन्हा": 2783,
      "असणाऱ्या": 2784,
      "णाच्या": 2785,
      "ad": 2786,
      "सत्ते": 2787,
      "व्हायरस": 2788,
      "स्टि": 2789,
      "पदार्थ": 2790,
      "पोह": 2791,
      "रोहित": 2792,
      "घालून": 2793,
      "वरि": 2794,
      "तिस": 2795,
      "वाढी": 2796,
      "माध्यमा": 2797,
      "नव्हता": 2798,
      "महाप": 2799,
      "उभे": 2800,
      "दिन": 2801,
      "पन": 2802,
      "ष्ठा": 2803,
      "वेब": 2804,
      "निया": 2805,
      "पोट": 2806,
      "नॉ": 2807,
      "चाह": 2808,
      "कौतु": 2809,
      "सोडून": 2810,
      "रक्त": 2811,
      "वास्त": 2812,
      "जनता": 2813,
      "यण": 2814,
      "रवी": 2815,
      "पात्र": 2816,
      "लसीकरण": 2817,
      "दुसरीकडे": 2818,
      "चोर": 2819,
      "प्ला": 2820,
      "वडे": 2821,
      "उत्पादन": 2822,
      "लिंग": 2823,
      "साह": 2824,
      "असू": 2825,
      "फस": 2826,
      "विद्यार्थ्यांना": 2827,
      "शनिवारी": 2828,
      "कॉंग्रेस": 2829,
      "कशा": 2830,
      "रत": 2831,
      "महत्त्व": 2832,
      "असतं": 2833,
      "धड": 2834,
      "हवी": 2835,
      "अमित": 2836,
      "पहिली": 2837,
      "पोलिसांना": 2838,
      "हाण": 2839,
      "काश्मीर": 2840,
      "आव्हान": 2841,
      "देशीर": 2842,
      "त्कार": 2843,
      "रस": 2844,
      "थि": 2845,
      "साजरा": 2846,
      "देवी": 2847,
      "अभिनेता": 2848,
      "व्यवहार": 2849,
      "द्दी": 2850,
      "झी": 2851,
      "पडला": 2852,
      "वर्ण": 2853,
      "पळ": 2854,
      "भेटी": 2855,
      "बसला": 2856,
      "लोकांनी": 2857,
      "४०": 2858,
      "घेण्यासाठी": 2859,
      "अपेक्षा": 2860,
      "तिचा": 2861,
      "अत्या": 2862,
      "अस्": 2863,
      "दुसरा": 2864,
      "किमान": 2865,
      "म्स": 2866,
      "कांमध्ये": 2867,
      "कोल्हापूर": 2868,
      "बाजी": 2869,
      "निकाल": 2870,
      "आर्": 2871,
      "मोह": 2872,
      "ळात": 2873,
      "देण्याची": 2874,
      "कोरोनाचा": 2875,
      "ंस": 2876,
      "स्वयं": 2877,
      "इंडि": 2878,
      "निमित्त": 2879,
      "मुलगी": 2880,
      "पुण्या": 2881,
      "संरक्षण": 2882,
      "सोन्या": 2883,
      "अथ": 2884,
      "सल्ला": 2885,
      "पत्रा": 2886,
      "हेच": 2887,
      "सॅ": 2888,
      "तीच्या": 2889,
      "आरक्षण": 2890,
      "क्षी": 2891,
      "ंतील": 2892,
      "नारायण": 2893,
      "शास्त्र": 2894,
      "निघ": 2895,
      "शिक्ष": 2896,
      "सले": 2897,
      "जागे": 2898,
      "ज्य": 2899,
      "व्यात": 2900,
      "नाट": 2901,
      "गल": 2902,
      "अजूनही": 2903,
      "शाह": 2904,
      "मुलांना": 2905,
      "सर्वच": 2906,
      "तळा": 2907,
      "ळक": 2908,
      "तरुण": 2909,
      "प्ले": 2910,
      "सांगत": 2911,
      "योजन": 2912,
      "माझे": 2913,
      "ब्रे": 2914,
      "कोरोनाची": 2915,
      "सांगण्यात": 2916,
      "आढळून": 2917,
      "तात्": 2918,
      "कमा": 2919,
      "पुण्यात": 2920,
      "व्यावसाय": 2921,
      "राहा": 2922,
      "त्रि": 2923,
      "मुस्": 2924,
      "मित्रा": 2925,
      "ंमधील": 2926,
      "सेस": 2927,
      "भागातील": 2928,
      "नॅ": 2929,
      "सोबतच": 2930,
      "स्टेशन": 2931,
      "पाठि": 2932,
      "प्रस्ताव": 2933,
      "दिवसांपूर्वी": 2934,
      "प्रकल्पा": 2935,
      "आयपीएल": 2936,
      "साडे": 2937,
      "उल्लेख": 2938,
      "200": 2939,
      "ष्टा": 2940,
      "व्यवस्थे": 2941,
      "नगरपालि": 2942,
      "बाबतीत": 2943,
      "लमध्ये": 2944,
      "परे": 2945,
      "माला": 2946,
      "दिवसात": 2947,
      "गुरुवारी": 2948,
      "ल्यामुळे": 2949,
      "it": 2950,
      "सचिव": 2951,
      "काहीही": 2952,
      "कोणताही": 2953,
      "पालन": 2954,
      "केश": 2955,
      "शेतकऱ्यांना": 2956,
      "हॉटेल": 2957,
      "इतकी": 2958,
      "बळी": 2959,
      "यंत्रणा": 2960,
      "मिळते": 2961,
      "जिल्हाधिकारी": 2962,
      "कांवर": 2963,
      "नाय": 2964,
      "बाकी": 2965,
      "पाहता": 2966,
      "आगामी": 2967,
      "हॉस्पि": 2968,
      "भाजपच्या": 2969,
      "कवि": 2970,
      "फ्ट": 2971,
      "नमध्ये": 2972,
      "पदार्": 2973,
      "ल्ल": 2974,
      "सवाल": 2975,
      "धक्कादायक": 2976,
      "ट्टी": 2977,
      "तळ": 2978,
      "घेणे": 2979,
      "सोला": 2980,
      "बांधकाम": 2981,
      "षक": 2982,
      "मधे": 2983,
      "सहज": 2984,
      "वडी": 2985,
      "काप": 2986,
      "प्रसार": 2987,
      "पुरुष": 2988,
      "अका": 2989,
      "मोहि": 2990,
      "मानसिक": 2991,
      "कर्णधार": 2992,
      "गोलंदा": 2993,
      "मंत्रालया": 2994,
      "विजे": 2995,
      "लाई": 2996,
      "पडली": 2997,
      "महाराष्ट्रातील": 2998,
      "राग": 2999,
      "राहील": 3000,
      "झाल्याचे": 3001,
      "ार्थ": 3002,
      "देह": 3003,
      "असल्यास": 3004,
      "देणे": 3005,
      "प्रयोग": 3006,
      "व्यवसा": 3007,
      "जूर": 3008,
      "भावा": 3009,
      "हिंदु": 3010,
      "जगा": 3011,
      "आलेले": 3012,
      "तक्रारी": 3013,
      "चंद": 3014,
      "पॉझि": 3015,
      "श्रा": 3016,
      "गायक": 3017,
      "बंग": 3018,
      "वितर": 3019,
      "धर्मा": 3020,
      "महाविकास": 3021,
      "आकार": 3022,
      "लोकप्रिय": 3023,
      "चिंता": 3024,
      "तीव्र": 3025,
      "फुट": 3026,
      "रणा": 3027,
      "करिता": 3028,
      "पद्धती": 3029,
      "चाच": 3030,
      "गाय": 3031,
      "सन्": 3032,
      "शिक्षणा": 3033,
      "विण्यासाठी": 3034,
      "क्रमांक": 3035,
      "२३": 3036,
      "आधीच": 3037,
      "अशोक": 3038,
      "होतील": 3039,
      "लक्ष्": 3040,
      "इंटर": 3041,
      "हातात": 3042,
      "असली": 3043,
      "डून": 3044,
      "तेही": 3045,
      "विभागाने": 3046,
      "22": 3047,
      "तिथ": 3048,
      "णि": 3049,
      "जाब": 3050,
      "स्वतंत्र": 3051,
      "हृ": 3052,
      "निमित्ता": 3053,
      "सुनावणी": 3054,
      "त्यातील": 3055,
      "प्रती": 3056,
      "ठेवण्यात": 3057,
      "प्रदेशा": 3058,
      "येतील": 3059,
      "चढ": 3060,
      "रॅ": 3061,
      "नसल्याचे": 3062,
      "पकड": 3063,
      "मुद्दा": 3064,
      "विन": 3065,
      "कालीन": 3066,
      "संसर्ग": 3067,
      "ऑक्सि": 3068,
      "पराभव": 3069,
      "महे": 3070,
      "अंग": 3071,
      "कत": 3072,
      "भाषे": 3073,
      "ंडू": 3074,
      "त्रे": 3075,
      "याशिवाय": 3076,
      "दृष्टीने": 3077,
      "स्टर": 3078,
      "प्लॅ": 3079,
      "इतके": 3080,
      "उलट": 3081,
      "धान्य": 3082,
      "स्पे": 3083,
      "सांगा": 3084,
      "चाकी": 3085,
      "केल्याने": 3086,
      "विकासा": 3087,
      "स्तु": 3088,
      "जै": 3089,
      "दंड": 3090,
      "सारखी": 3091,
      "ूस": 3092,
      "पूर्णपणे": 3093,
      "पहिल्यांदा": 3094,
      "१००": 3095,
      "रूग्": 3096,
      "कामगार": 3097,
      "प्रतिसाद": 3098,
      "तोय": 3099,
      "महाराज": 3100,
      "आरक्षणा": 3101,
      "तथा": 3102,
      "दिवाळी": 3103,
      "जॉ": 3104,
      "कस": 3105,
      "आवाज": 3106,
      "फॉर्म": 3107,
      "चंद्रकांत": 3108,
      "ंडर": 3109,
      "चिक": 3110,
      "निर": 3111,
      "बरी": 3112,
      "100": 3113,
      "पट्टी": 3114,
      "साखर": 3115,
      "बदला": 3116,
      "मुळं": 3117,
      "ट्विटर": 3118,
      "असंही": 3119,
      "हॉस्पिटल": 3120,
      "हाल": 3121,
      "लेज": 3122,
      "अल्प": 3123,
      "जाता": 3124,
      "परिस्थितीत": 3125,
      "्ज": 3126,
      "वाद्या": 3127,
      "ण्याचं": 3128,
      "हजारा": 3129,
      "एकच": 3130,
      "2021": 3131,
      "त्यामध्ये": 3132,
      "नसेल": 3133,
      "पार्टी": 3134,
      "हिर": 3135,
      "आंबेड": 3136,
      "आलेली": 3137,
      "अनेकदा": 3138,
      "ंसोबत": 3139,
      "लष्": 3140,
      "कृत": 3141,
      "बंगा": 3142,
      "केतील": 3143,
      "याप्रकरणी": 3144,
      "ग्रामपंचा": 3145,
      "विज": 3146,
      "पटू": 3147,
      "फटका": 3148,
      "आक्रम": 3149,
      "ंपर्यंत": 3150,
      "गौ": 3151,
      "लीत": 3152,
      "कोह": 3153,
      "गरी": 3154,
      "्वी": 3155,
      "रुपयांची": 3156,
      "दररोज": 3157,
      "दुसर": 3158,
      "तशी": 3159,
      "कपूर": 3160,
      "नावे": 3161,
      "लावा": 3162,
      "हट": 3163,
      "पान": 3164,
      "वणे": 3165,
      "वस": 3166,
      "त्री": 3167,
      "संध्या": 3168,
      "सूल": 3169,
      "स्ते": 3170,
      "मंडळी": 3171,
      "ic": 3172,
      "आजही": 3173,
      "र्जी": 3174,
      "स्टो": 3175,
      "जणांना": 3176,
      "मास्क": 3177,
      "हंगा": 3178,
      "नंबर": 3179,
      "न्ट": 3180,
      "आयोजन": 3181,
      "क्रमात": 3182,
      "इच्छ": 3183,
      "हेही": 3184,
      "नियोजन": 3185,
      "याद": 3186,
      "फ्र": 3187,
      "केलेला": 3188,
      "नोंदणी": 3189,
      "आश्वास": 3190,
      "प्रदर्श": 3191,
      "करणं": 3192,
      "टू": 3193,
      "काहीच": 3194,
      "णात": 3195,
      "पडले": 3196,
      "आजारा": 3197,
      "छत्र": 3198,
      "नवे": 3199,
      "वरिष्ठ": 3200,
      "माती": 3201,
      "्याला": 3202,
      "यीन": 3203,
      "मारहाण": 3204,
      "वण्याचा": 3205,
      "मार्फत": 3206,
      "झु": 3207,
      "राज्याचे": 3208,
      "गां": 3209,
      "संशय": 3210,
      "आशि": 3211,
      "गडा": 3212,
      "उडा": 3213,
      "ठेवून": 3214,
      "मारी": 3215,
      "तित": 3216,
      "चांगल्या": 3217,
      "गाठ": 3218,
      "करेल": 3219,
      "कोहली": 3220,
      "विचारा": 3221,
      "निष्": 3222,
      "२६": 3223,
      "मंजूर": 3224,
      "दिलासा": 3225,
      "कामगारा": 3226,
      "निरा": 3227,
      "घेणार": 3228,
      "ेल": 3229,
      "टाळा": 3230,
      "नेहमीच": 3231,
      "महापौर": 3232,
      "विधानसभे": 3233,
      "त्स": 3234,
      "केस": 3235,
      "र्क": 3236,
      "गाड्या": 3237,
      "क्षेत्रातील": 3238,
      "मिता": 3239,
      "प्राथ": 3240,
      "विमा": 3241,
      "आत्म": 3242,
      "ल्क": 3243,
      "धम": 3244,
      "नवर": 3245,
      "साकार": 3246,
      "शॉ": 3247,
      "शेवटी": 3248,
      "विनं": 3249,
      "तातडीने": 3250,
      "मोरे": 3251,
      "as": 3252,
      "फ्रे": 3253,
      "वाटा": 3254,
      "राहिले": 3255,
      "त्ये": 3256,
      "सुरे": 3257,
      "दिसते": 3258,
      "जोडी": 3259,
      "कांसाठी": 3260,
      "परिसरातील": 3261,
      "गरजेचे": 3262,
      "प्राथमिक": 3263,
      "रोग": 3264,
      "तज्": 3265,
      "पाक": 3266,
      "ठेवले": 3267,
      "दुष्": 3268,
      "शब्दा": 3269,
      "जातं": 3270,
      "सदस्या": 3271,
      "प्रशासनाने": 3272,
      "कौतुक": 3273,
      "कॉल": 3274,
      "त्याचबरोबर": 3275,
      "सलमान": 3276,
      "आकर्": 3277,
      "23": 3278,
      "असला": 3279,
      "भात": 3280,
      "बर्": 3281,
      "सत्य": 3282,
      "चर्चेत": 3283,
      "ंदू": 3284,
      "ल्याची": 3285,
      "युती": 3286,
      "ार्": 3287,
      "आशा": 3288,
      "इमारती": 3289,
      "इंग्र": 3290,
      "फेसबुक": 3291,
      "इतिहास": 3292,
      "चोरी": 3293,
      "अण": 3294,
      "घाट": 3295,
      "महत्त्वाचे": 3296,
      "मराठ": 3297,
      "विनंती": 3298,
      "आकडे": 3299,
      "यातून": 3300,
      "मंदिरा": 3301,
      "विद्यापीठा": 3302,
      "देण्याचा": 3303,
      "२८": 3304,
      "ध्द": 3305,
      "अथवा": 3306,
      "त्तर": 3307,
      "गुरू": 3308,
      "तेथ": 3309,
      "लगे": 3310,
      "दृष्ट": 3311,
      "पोहच": 3312,
      "जळगाव": 3313,
      "नऊ": 3314,
      "रत्": 3315,
      "कॅमे": 3316,
      "जंग": 3317,
      "निमित्ताने": 3318,
      "कित": 3319,
      "अंध": 3320,
      "सुख": 3321,
      "रहा": 3322,
      "क्रमांका": 3323,
      "ंधा": 3324,
      "स्वरूप": 3325,
      "वर्षांपासून": 3326,
      "झोप": 3327,
      "ंपेक्षा": 3328,
      "प्रचार": 3329,
      "पातळीवर": 3330,
      "क्षमता": 3331,
      "दोघे": 3332,
      "पाठिंबा": 3333,
      "निवेद": 3334,
      "घ्यावी": 3335,
      "सभेत": 3336,
      "विद्य": 3337,
      "अपे": 3338,
      "गैरे": 3339,
      "यांच्यासह": 3340,
      "टेस्ट": 3341,
      "कृष्ण": 3342,
      "दीड": 3343,
      "६०": 3344,
      "ऑक्सिजन": 3345,
      "कता": 3346,
      "तिसऱ्या": 3347,
      "म्हणूनच": 3348,
      "कुठल्या": 3349,
      "स्पर्धेत": 3350,
      "ुप": 3351,
      "वगैरे": 3352,
      "कारखा": 3353,
      "साधला": 3354,
      "बाळासाहेब": 3355,
      "तोंड": 3356,
      "जमीन": 3357,
      "लागतो": 3358,
      "वाईट": 3359,
      "णाची": 3360,
      "पुनर्": 3361,
      "सॉ": 3362,
      "प्रश्ना": 3363,
      "सेंटर": 3364,
      "बऱ्या": 3365,
      "रिंग": 3366,
      "होणे": 3367,
      "उन": 3368,
      "झील": 3369,
      "सर्वांना": 3370,
      "शाळेत": 3371,
      "संबंधी": 3372,
      "स्वामी": 3373,
      "आमदारा": 3374,
      "ऱ्यावर": 3375,
      "अहमद": 3376,
      "राजीनामा": 3377,
      "कदा": 3378,
      "सुपर": 3379,
      "कोट": 3380,
      "देताना": 3381,
      "नगरसेवक": 3382,
      "मुलाख": 3383,
      "प्रिया": 3384,
      "मानले": 3385,
      "वर्ल्ड": 3386,
      "सोलापूर": 3387,
      "अवलंब": 3388,
      "करि": 3389,
      "कोर्ट": 3390,
      "जाहि": 3391,
      "केल्यास": 3392,
      "दादा": 3393,
      "भाजपने": 3394,
      "मोर्चा": 3395,
      "छत्रपती": 3396,
      "प्रकारच्या": 3397,
      "उपयोग": 3398,
      "रस्ता": 3399,
      "एक्स": 3400,
      "नास": 3401,
      "अंमल": 3402,
      "पूजा": 3403,
      "मदती": 3404,
      "पाठी": 3405,
      "देवा": 3406,
      "उत्पन्न": 3407,
      "नागरिकांनी": 3408,
      "संकेत": 3409,
      "सायं": 3410,
      "मालिका": 3411,
      "अतिरिक्त": 3412,
      "प्रतिबंध": 3413,
      "सहकारी": 3414,
      "40": 3415,
      "बीसी": 3416,
      "खालील": 3417,
      "वापरा": 3418,
      "कारक": 3419,
      "तुझ": 3420,
      "तृ": 3421,
      "is": 3422,
      "दिवसांत": 3423,
      "आवश्यकता": 3424,
      "२७": 3425,
      "एअर": 3426,
      "बरा": 3427,
      "इतका": 3428,
      "हृद": 3429,
      "औषध": 3430,
      "स्थळी": 3431,
      "ष्य": 3432,
      "कंपनीने": 3433,
      "कोसळ": 3434,
      "कोल": 3435,
      "आल्यानंतर": 3436,
      "चित्रपटात": 3437,
      "ट्रा": 3438,
      "उमेदवारी": 3439,
      "पृथ": 3440,
      "युद्ध": 3441,
      "दश": 3442,
      "पिका": 3443,
      "ऊर्": 3444,
      "डाय": 3445,
      "लगेच": 3446,
      "म्हणाला": 3447,
      "व्यक्ति": 3448,
      "तुलनेत": 3449,
      "मतदारसंघात": 3450,
      "द्रा": 3451,
      "मोड": 3452,
      "सारखा": 3453,
      "वाहना": 3454,
      "परीक्षे": 3455,
      "आदित्य": 3456,
      "संगीत": 3457,
      "्याची": 3458,
      "पाई": 3459,
      "शिर": 3460,
      "सें": 3461,
      "कार्यकर्ते": 3462,
      "तरुणी": 3463,
      "घसर": 3464,
      "तिची": 3465,
      "नेत्या": 3466,
      "सोप": 3467,
      "मार्गावर": 3468,
      "युक्ती": 3469,
      "शेख": 3470,
      "हस्ते": 3471,
      "जगातील": 3472,
      "शात": 3473,
      "भारताने": 3474,
      "धोनी": 3475,
      "णाचा": 3476,
      "दात": 3477,
      "माणूस": 3478,
      "रं": 3479,
      "स्वातंत्र्य": 3480,
      "फिर्या": 3481,
      "विनो": 3482,
      "सावर": 3483,
      "अब्": 3484,
      "ूल": 3485,
      "करणारा": 3486,
      "डीत": 3487,
      "बहि": 3488,
      "बरेच": 3489,
      "दुर्लक्ष": 3490,
      "कठी": 3491,
      "वळी": 3492,
      "काँग्रेसच्या": 3493,
      "टेड": 3494,
      "सेल्": 3495,
      "मना": 3496,
      "दिल्लीत": 3497,
      "हल्ल्या": 3498,
      "नल": 3499,
      "नातून": 3500,
      "ल्ले": 3501,
      "ठ्": 3502,
      "प्रादुर्": 3503,
      "दिशे": 3504,
      "पंजाब": 3505,
      "डिझे": 3506,
      "जुरी": 3507,
      "कठीण": 3508,
      "्म": 3509,
      "वरित": 3510,
      "फोड": 3511,
      "वडील": 3512,
      "तिचे": 3513,
      "पृथ्वी": 3514,
      "जोशी": 3515,
      "बजावणी": 3516,
      "दुरु": 3517,
      "जाणाऱ्या": 3518,
      "सिंध": 3519,
      "रेट": 3520,
      "शिक्षा": 3521,
      "नीय": 3522,
      "ंनाही": 3523,
      "दर्जा": 3524,
      "झाडा": 3525,
      "संयुक्त": 3526,
      "आजच्या": 3527,
      "2020": 3528,
      "आजार": 3529,
      "सदर": 3530,
      "याचिका": 3531,
      "जागी": 3532,
      "स्तर": 3533,
      "साथ": 3534,
      "आठवड्यात": 3535,
      "तालुक्यात": 3536,
      "तसा": 3537,
      "नितीन": 3538,
      "भरातील": 3539,
      "महाराजा": 3540,
      "जुन्या": 3541,
      "ट्रॅ": 3542,
      "करायचे": 3543,
      "लोकांच्या": 3544,
      "हिं": 3545,
      "ra": 3546,
      "वारंवार": 3547,
      "लेक्": 3548,
      "जम": 3549,
      "कॉलेज": 3550,
      "दुर्ग": 3551,
      "वाजे": 3552,
      "ऑफि": 3553,
      "पुरात": 3554,
      "विस्त": 3555,
      "पक्षाचे": 3556,
      "यांच्यात": 3557,
      "वाघ": 3558,
      "नू": 3559,
      "हस": 3560,
      "सुनील": 3561,
      "महिने": 3562,
      "बघा": 3563,
      "हिंदी": 3564,
      "लावली": 3565,
      "धारा": 3566,
      "मिनिटा": 3567,
      "्यांच्या": 3568,
      "खट": 3569,
      "महापालिकेच्या": 3570,
      "विली": 3571,
      "क्षणिक": 3572,
      "पडत": 3573,
      "सुशांत": 3574,
      "दुचाकी": 3575,
      "माफी": 3576,
      "वजन": 3577,
      "एक्": 3578,
      "मोज": 3579,
      "पक": 3580,
      "मुले": 3581,
      "यांच्याकडे": 3582,
      "आपलं": 3583,
      "काचे": 3584,
      "व्हॉ": 3585,
      "शस्त्र": 3586,
      "विवाह": 3587,
      "26": 3588,
      "सभाग": 3589,
      "भरती": 3590,
      "भग": 3591,
      "सर्गा": 3592,
      "स्थापना": 3593,
      "राष्ट्रवादीचे": 3594,
      "आढा": 3595,
      "डोळ्या": 3596,
      "पैशा": 3597,
      "मुद्दे": 3598,
      "जाहिरात": 3599,
      "सभागृ": 3600,
      "स्फोट": 3601,
      "संस": 3602,
      "सिटी": 3603,
      "षिक": 3604,
      "शनल": 3605,
      "आयुष्य": 3606,
      "तालुका": 3607,
      "गावातील": 3608,
      "नक्कीच": 3609,
      "नियमित": 3610,
      "हळ": 3611,
      "आयुक्ता": 3612,
      "निशा": 3613,
      "धोरण": 3614,
      "कटा": 3615,
      "गोंध": 3616,
      "आलेला": 3617,
      "आयोगा": 3618,
      "आल्याने": 3619,
      "रड": 3620,
      "भाजपला": 3621,
      "यादव": 3622,
      "जावे": 3623,
      "जप्त": 3624,
      "स्त्रा": 3625,
      "खळबळ": 3626,
      "तः": 3627,
      "यांचं": 3628,
      "अँ": 3629,
      "दूध": 3630,
      "लागण": 3631,
      "तुला": 3632,
      "कार्यालयात": 3633,
      "सातारा": 3634,
      "वाढली": 3635,
      "बिहार": 3636,
      "निर्देश": 3637,
      "सामान": 3638,
      "चिन्": 3639,
      "ंतर्गत": 3640,
      "नंदा": 3641,
      "नाईक": 3642,
      "गुला": 3643,
      "ंगे": 3644,
      "चेंडू": 3645,
      "राष्ट्रपती": 3646,
      "मान्यता": 3647,
      "झाल्यास": 3648,
      "नसून": 3649,
      "झाल्यावर": 3650,
      "अंमलबजावणी": 3651,
      "समुद्र": 3652,
      "वक्तव्य": 3653,
      "तीच": 3654,
      "बड": 3655,
      "घन": 3656,
      "मेट्रो": 3657,
      "माहीत": 3658,
      "मृतदेह": 3659,
      "जगात": 3660,
      "रेल": 3661,
      "कोणाला": 3662,
      "बाग": 3663,
      "मिळवून": 3664,
      "नातेवाई": 3665,
      "निवडून": 3666,
      "झर": 3667,
      "वीत": 3668,
      "चूक": 3669,
      "समि": 3670,
      "स्टॉ": 3671,
      "नेतृत्वा": 3672,
      "विधे": 3673,
      "पाहिले": 3674,
      "तारा": 3675,
      "प्रकारचे": 3676,
      "विद्यापीठ": 3677,
      "पाण्या": 3678,
      "कृष्ट": 3679,
      "डोस": 3680,
      "दित": 3681,
      "कार्यक्रमात": 3682,
      "७०": 3683,
      "वेगळे": 3684,
      "शकेल": 3685,
      "करायची": 3686,
      "कागद": 3687,
      "र्त": 3688,
      "पॉझिटिव्ह": 3689,
      "रोप": 3690,
      "निषे": 3691,
      "ळकर": 3692,
      "क्रो": 3693,
      "शैक्षणिक": 3694,
      "देशाच्या": 3695,
      "28": 3696,
      "गाई": 3697,
      "निंग": 3698,
      "याकडे": 3699,
      "व्यति": 3700,
      "पदी": 3701,
      "विभागाच्या": 3702,
      "ग्रॅ": 3703,
      "ओढ": 3704,
      "शिवसेनेचे": 3705,
      "प्रक्रि": 3706,
      "तणा": 3707,
      "रच": 3708,
      "शरीरा": 3709,
      "घेतल्या": 3710,
      "तिकी": 3711,
      "हरण": 3712,
      "शासनाने": 3713,
      "आस": 3714,
      "संघर्ष": 3715,
      "पहिले": 3716,
      "महानगरपालि": 3717,
      "वणार": 3718,
      "संपाद": 3719,
      "प्ता": 3720,
      "गायकवाड": 3721,
      "सावंत": 3722,
      "संस्कृती": 3723,
      "अश्": 3724,
      "रुपयांचा": 3725,
      "तापमान": 3726,
      "रस्ते": 3727,
      "मृता": 3728,
      "आढावा": 3729,
      "सेने": 3730,
      "काची": 3731,
      "धार्": 3732,
      "दिशा": 3733,
      "सातत्याने": 3734,
      "देता": 3735,
      "१९९": 3736,
      "खुला": 3737,
      "नाटका": 3738,
      "बेड": 3739,
      "छान": 3740,
      "विसर": 3741,
      "राजेश": 3742,
      "सहाय्य": 3743,
      "झाल्याची": 3744,
      "असतानाच": 3745,
      "सुरूवात": 3746,
      "om": 3747,
      "रोजगार": 3748,
      "मूद": 3749,
      "बीड": 3750,
      "पांडे": 3751,
      "ऊस": 3752,
      "नाना": 3753,
      "वितरण": 3754,
      "ध्व": 3755,
      "्णा": 3756,
      "ठार": 3757,
      "जम्": 3758,
      "कलाकारा": 3759,
      "बांग": 3760,
      "३५": 3761,
      "्याच": 3762,
      "स्कर": 3763,
      "पासूनच": 3764,
      "ंवरील": 3765,
      "माळ": 3766,
      "जाव": 3767,
      "मोक": 3768,
      "अँड": 3769,
      "अधिकृत": 3770,
      "कुटुंबी": 3771,
      "गन": 3772,
      "बाधिता": 3773,
      "साठ": 3774,
      "दखल": 3775,
      "जीत": 3776,
      "गटा": 3777,
      "करणारी": 3778,
      "अंतर": 3779,
      "फेरी": 3780,
      "पत्रकारा": 3781,
      "करायचा": 3782,
      "घटक": 3783,
      "दिवासी": 3784,
      "सायंकाळी": 3785,
      "आकडा": 3786,
      "नसते": 3787,
      "भवा": 3788,
      "२९": 3789,
      "उभ": 3790,
      "जणांचा": 3791,
      "प्रशासन": 3792,
      "काचा": 3793,
      "संशोधन": 3794,
      "स्वागत": 3795,
      "लेट": 3796,
      "मेह": 3797,
      "लोकां": 3798,
      "देशभरात": 3799,
      "व्यतिरिक्त": 3800,
      "लेश": 3801,
      "27": 3802,
      "प्रमाणावर": 3803,
      "छोट्या": 3804,
      "कायदेशीर": 3805,
      "अर्थसं": 3806,
      "आदिवासी": 3807,
      "रळ": 3808,
      "साथी": 3809,
      "योगी": 3810,
      "ळावर": 3811,
      "कोळ": 3812,
      "लोकल": 3813,
      "्यांनी": 3814,
      "मट": 3815,
      "कडक": 3816,
      "इत्या": 3817,
      "खडसे": 3818,
      "बचा": 3819,
      "वाटतं": 3820,
      "कालावधीत": 3821,
      "८०": 3822,
      "तुट": 3823,
      "सित": 3824,
      "समजून": 3825,
      "सुधारणा": 3826,
      "नियुक्ती": 3827,
      "मुदत": 3828,
      "डोंग": 3829,
      "रहिवा": 3830,
      "गोळी": 3831,
      "ज्यो": 3832,
      "डिंग": 3833,
      "मिळू": 3834,
      "फळ": 3835,
      "देतात": 3836,
      "दुखा": 3837,
      "महत्त्वाची": 3838,
      "अभिया": 3839,
      "मधल्या": 3840,
      "तेला": 3841,
      "किलोमीटर": 3842,
      "दहशतवादी": 3843,
      "न्नई": 3844,
      "साहेबा": 3845,
      "पक्षाच्या": 3846,
      "वडा": 3847,
      "कार्यरत": 3848,
      "शुभे": 3849,
      "रशि": 3850,
      "उपमुख्यमंत्री": 3851,
      "भरून": 3852,
      "पीड": 3853,
      "दरवर्षी": 3854,
      "त्याचं": 3855,
      "हजर": 3856,
      "प्रशिक्षण": 3857,
      "ir": 3858,
      "ंतून": 3859,
      "दारू": 3860,
      "वाडा": 3861,
      "ंमधून": 3862,
      "टरी": 3863,
      "आकडेवारी": 3864,
      "मुख्यमंत्र्यांनी": 3865,
      "ंश": 3866,
      "ंत्रा": 3867,
      "ट्ट": 3868,
      "करतील": 3869,
      "कपडे": 3870,
      "परिषदेत": 3871,
      "व्यावसायिक": 3872,
      "युवा": 3873,
      "लप": 3874,
      "साला": 3875,
      "कलम": 3876,
      "आक्रमक": 3877,
      "मधु": 3878,
      "आड": 3879,
      "सकार": 3880,
      "सरासरी": 3881,
      "टाय": 3882,
      "राष्ट्रा": 3883,
      "सेवे": 3884,
      "हजारो": 3885,
      "चेन्नई": 3886,
      "संभाजी": 3887,
      "ंगी": 3888,
      "वण्याची": 3889,
      "लोकशाही": 3890,
      "जागृ": 3891,
      "कंग": 3892,
      "धुनिक": 3893,
      "शुल्क": 3894,
      "मोहन": 3895,
      "सांगली": 3896,
      "िरी": 3897,
      "चहा": 3898,
      "अभिन": 3899,
      "रांना": 3900,
      "बरोबरच": 3901,
      "प्रदेशाध्यक्ष": 3902,
      "पोलिसांच्या": 3903,
      "पाप": 3904,
      "सूर्य": 3905,
      "२०२०": 3906,
      "फुल": 3907,
      "घाला": 3908,
      "कदाचित": 3909,
      "नाराजी": 3910,
      "सूत्रा": 3911,
      "सेट": 3912,
      "le": 3913,
      "कोरोनामुळे": 3914,
      "इंजि": 3915,
      "सच्या": 3916,
      "मालम": 3917,
      "सोय": 3918,
      "नमूद": 3919,
      "काहीतरी": 3920,
      "पोलीसनामा": 3921,
      "वते": 3922,
      "केची": 3923,
      "सर्वे": 3924,
      "उर": 3925,
      "सहभाग": 3926,
      "शुभेच्छा": 3927,
      "निवडणुकीच्या": 3928,
      "अग्": 3929,
      "अॅड": 3930,
      "नाकार": 3931,
      "ऐक": 3932,
      "2019": 3933,
      "विधी": 3934,
      "४५": 3935,
      "ग्राहकांना": 3936,
      "सांभा": 3937,
      "धार्मिक": 3938,
      "ग्रं": 3939,
      "फल": 3940,
      "स्थानी": 3941,
      "वर्षाच्या": 3942,
      "टीस": 3943,
      "बोला": 3944,
      "मुस्लि": 3945,
      "हारा": 3946,
      "रस्त्या": 3947,
      "अरु": 3948,
      "णीव": 3949,
      "हीम": 3950,
      "ion": 3951,
      "ha": 3952,
      "्याचा": 3953,
      "तेवढ": 3954,
      "बऱ्याच": 3955,
      "इत्यादी": 3956,
      "वर्षांपूर्वी": 3957,
      "खरं": 3958,
      "पाहणी": 3959,
      "गोड": 3960,
      "भरपूर": 3961,
      "याबद्दल": 3962,
      "भाई": 3963,
      "क्रीडा": 3964,
      "ठरला": 3965,
      "सकारात्मक": 3966,
      "बॉल": 3967,
      "अस्ति": 3968,
      "युव": 3969,
      "विक्रम": 3970,
      "us": 3971,
      "लॉक": 3972,
      "घेण्याची": 3973,
      "चम": 3974,
      "नेही": 3975,
      "मिळालेल्या": 3976,
      "शान": 3977,
      "वाटप": 3978,
      "दत्त": 3979,
      "शाखे": 3980,
      "विभागाचे": 3981,
      "रिपोर्ट": 3982,
      "क्षेप": 3983,
      "पालकमंत्री": 3984,
      "अफगा": 3985,
      "सोसाय": 3986,
      "विंद": 3987,
      "ड्रा": 3988,
      "खाते": 3989,
      "काळे": 3990,
      "धू": 3991,
      "स्मार्टफोन": 3992,
      "पक्षी": 3993,
      "पैसा": 3994,
      "शंकर": 3995,
      "पटेल": 3996,
      "स्टिक": 3997,
      "येथून": 3998,
      "स्वप्न": 3999,
      "निधन": 4000,
      "किमी": 4001,
      "त्यापैकी": 4002,
      "ध्ये": 4003,
      "Re": 4004,
      "राज्याच्या": 4005,
      "लास": 4006,
      "विभागात": 4007,
      "ज्ज": 4008,
      "राजस्थान": 4009,
      "मागित": 4010,
      "डिझा": 4011,
      "सर्गिक": 4012,
      "लागतात": 4013,
      "गणपती": 4014,
      "वगळ": 4015,
      "भाडे": 4016,
      "राहून": 4017,
      "कधीही": 4018,
      "मौ": 4019,
      "प्रवासी": 4020,
      "उपाययोजना": 4021,
      "्रो": 4022,
      "आंबेडकर": 4023,
      "नागरी": 4024,
      "पांढ": 4025,
      "धानी": 4026,
      "हार्": 4027,
      "कर्नाटक": 4028,
      "म्हणणे": 4029,
      "नौ": 4030,
      "लाखो": 4031,
      "पाण्यात": 4032,
      "मीडिया": 4033,
      "आश्वासन": 4034,
      "60": 4035,
      "जेट": 4036,
      "वेगाने": 4037,
      "व्यवस्थाप": 4038,
      "उष्ण": 4039,
      "मय": 4040,
      "मिळून": 4041,
      "समाधान": 4042,
      "खेड": 4043,
      "चन": 4044,
      "बलात्कार": 4045,
      "गृहमंत्री": 4046,
      "माता": 4047,
      "संध्याकाळी": 4048,
      "ताक": 4049,
      "एकनाथ": 4050,
      "अपेक्षित": 4051,
      "फरक": 4052,
      "रिक्षा": 4053,
      "सुरुवातीला": 4054,
      "धिकाऱ्या": 4055,
      "त्यामुळेच": 4056,
      "निर्बंध": 4057,
      "पाने": 4058,
      "वाने": 4059,
      "जबाबदार": 4060,
      "मनु": 4061,
      "इम": 4062,
      "धरण": 4063,
      "पेट": 4064,
      "वैय": 4065,
      "णीत": 4066,
      "केल्याची": 4067,
      "सृ": 4068,
      "कधीच": 4069,
      "थ्या": 4070,
      "बहुते": 4071,
      "ोष": 4072,
      "३१": 4073,
      "वेगळी": 4074,
      "ur": 4075,
      "वार्षिक": 4076,
      "जगभरात": 4077,
      "वर्षांत": 4078,
      "वलेल्या": 4079,
      "क्षम": 4080,
      "सहन": 4081,
      "अवघ्या": 4082,
      "निवडणुका": 4083,
      "पदवी": 4084,
      "हाच": 4085,
      "एकही": 4086,
      "ईडी": 4087,
      "लक्ष्मी": 4088,
      "पुण्यातील": 4089,
      "लंय": 4090,
      "एमआय": 4091,
      "णार्या": 4092,
      "भारताचा": 4093,
      "वतात": 4094,
      "यांवर": 4095,
      "वढा": 4096,
      "राशी": 4097,
      "केल्याचे": 4098,
      "अधिका": 4099,
      "ळु": 4100,
      "मध्यम": 4101,
      "बिन": 4102,
      "झीलंड": 4103,
      "फ्रि": 4104,
      "कठो": 4105,
      "कदम": 4106,
      "पुरुषा": 4107,
      "पदार्था": 4108,
      "प्रभावी": 4109,
      "गमा": 4110,
      "ऱ्यात": 4111,
      "वर्धन": 4112,
      "शंका": 4113,
      "भ्रष्टा": 4114,
      "प्स": 4115,
      "ज्यामुळे": 4116,
      "निवास": 4117,
      "किशो": 4118,
      "्डा": 4119,
      "य्या": 4120,
      "प्रादुर्भाव": 4121,
      "वावर": 4122,
      "खाज": 4123,
      "पहाटे": 4124,
      "उत्सु": 4125,
      "पुढच्या": 4126,
      "मुख्या": 4127,
      "क्ल": 4128,
      "बीर": 4129,
      "पाकिस्ता": 4130,
      "un": 4131,
      "दुसर्या": 4132,
      "केल्याचा": 4133,
      "२०१९": 4134,
      "वेध": 4135,
      "सांगतात": 4136,
      "व्हॅ": 4137,
      "काढा": 4138,
      "धरी": 4139,
      "भोसले": 4140,
      "मोफत": 4141,
      "ठरले": 4142,
      "गडी": 4143,
      "भारताला": 4144,
      "ल्याचा": 4145,
      "थोडा": 4146,
      "स्ट्री": 4147,
      "फ्रा": 4148,
      "गरम": 4149,
      "मुद्द्या": 4150,
      "एवढे": 4151,
      "त्यांचं": 4152,
      "श्रद्धा": 4153,
      "सलग": 4154,
      "पाऊल": 4155,
      "निकाला": 4156,
      "सरकारकडून": 4157,
      "उभा": 4158,
      "सामने": 4159,
      "णाचे": 4160,
      "लसीकरणा": 4161,
      "तेचा": 4162,
      "करार": 4163,
      "वासा": 4164,
      "संकटा": 4165,
      "जाणीव": 4166,
      "अधी": 4167,
      "केचा": 4168,
      "आभार": 4169,
      "घरातील": 4170,
      "बोध": 4171,
      "प्या": 4172,
      "विकसित": 4173,
      "काढला": 4174,
      "एकी": 4175,
      "तुमचे": 4176,
      "अनि": 4177,
      "कने": 4178,
      "एके": 4179,
      "लिहिले": 4180,
      "आधारित": 4181,
      "सुरेश": 4182,
      "राहत": 4183,
      "शैली": 4184,
      "थोड": 4185,
      "अण्णा": 4186,
      "कविता": 4187,
      "प्रकारा": 4188,
      "नोटा": 4189,
      "तला": 4190,
      "रोखण्यासाठी": 4191,
      "दिलीप": 4192,
      "कूर": 4193,
      "तुझ्या": 4194,
      "पंक": 4195,
      "मोदींनी": 4196,
      "बिग": 4197,
      "तुमची": 4198,
      "युनि": 4199,
      "होण्या": 4200,
      "रम": 4201,
      "जम्मू": 4202,
      "रुग्णांना": 4203,
      "दाखवून": 4204,
      "अट": 4205,
      "यासंदर्भात": 4206,
      "कलाकार": 4207,
      "द्यावे": 4208,
      "पीठा": 4209,
      "कठोर": 4210,
      "जबर": 4211,
      "नैसर्गिक": 4212,
      "गम": 4213,
      "अंगा": 4214,
      "नेत्यांनी": 4215,
      "रूग्णा": 4216,
      "रिझ": 4217,
      "संदेश": 4218,
      "कडी": 4219,
      "तेज": 4220,
      "खून": 4221,
      "मदतीने": 4222,
      "29": 4223,
      "पर्यावरण": 4224,
      "मागण्या": 4225,
      "प्रदर्शित": 4226,
      "ंबाबत": 4227,
      "दारांना": 4228,
      "आमची": 4229,
      "लावला": 4230,
      "खरी": 4231,
      "स्तीत": 4232,
      "खूपच": 4233,
      "डेटा": 4234,
      "होण्यासाठी": 4235,
      "सागर": 4236,
      "मोल": 4237,
      "चौधरी": 4238,
      "कोणतेही": 4239,
      "आदेशा": 4240,
      "काढले": 4241,
      "गोल": 4242,
      "नॅशनल": 4243,
      "35": 4244,
      "मंडळाच्या": 4245,
      "तेथील": 4246,
      "पुला": 4247,
      "सैनि": 4248,
      "मलिक": 4249,
      "शेतकऱ्यांच्या": 4250,
      "मागा": 4251,
      "सहकार्य": 4252,
      "चक": 4253,
      "प्रकृती": 4254,
      "वर्षांच्या": 4255,
      "विकेट": 4256,
      "दिशेने": 4257,
      "सन्मान": 4258,
      "मॅच": 4259,
      "दुरुस्ती": 4260,
      "क्रिय": 4261,
      "रत्नाग": 4262,
      "द्यावी": 4263,
      "समान": 4264,
      "आयटी": 4265,
      "इंग्रजी": 4266,
      "प्रेस": 4267,
      "मेड": 4268,
      "गाज": 4269,
      "आयुष्यात": 4270,
      "दबा": 4271,
      "ed": 4272,
      "प्रकारची": 4273,
      "ग्रहा": 4274,
      "प्रभाव": 4275,
      "वेगळा": 4276,
      "मालिकेत": 4277,
      "ay": 4278,
      "हिता": 4279,
      "थंड": 4280,
      "कोर्टात": 4281,
      "घोषित": 4282,
      "प्रसंगी": 4283,
      "लगाव": 4284,
      "न्यूझीलंड": 4285,
      "आहार": 4286,
      "इरा": 4287,
      "फुले": 4288,
      "तर्फे": 4289,
      "बर्याच": 4290,
      "दीर्": 4291,
      "मंजुरी": 4292,
      "मार्गदर्शन": 4293,
      "कामका": 4294,
      "वैशिष्ट": 4295,
      "भुज": 4296,
      "डिझेल": 4297,
      "रज": 4298,
      "वणुकी": 4299,
      "घटनास्थळी": 4300,
      "यांच्याशी": 4301,
      "माहित": 4302,
      "डाव": 4303,
      "उज": 4304,
      "तुमचा": 4305,
      "उडाली": 4306,
      "जनक": 4307,
      "विशिष्ट": 4308,
      "धारी": 4309,
      "शुभ": 4310,
      "यांनीही": 4311,
      "योगा": 4312,
      "राहिला": 4313,
      "स्वि": 4314,
      "इलेक्": 4315,
      "पिंपरीचिंचवड": 4316,
      "स्तरावर": 4317,
      "दुख": 4318,
      "ईत": 4319,
      "कीस": 4320,
      "ण्ड": 4321,
      "गेट": 4322,
      "धनं": 4323,
      "क्तिक": 4324,
      "आहात": 4325,
      "सिनेमात": 4326,
      "असणे": 4327,
      "कचरा": 4328,
      "चळ": 4329,
      "ऑलि": 4330,
      "देण्याचे": 4331,
      "कावर": 4332,
      "शपथ": 4333,
      "सांगून": 4334,
      "्याचे": 4335,
      "सरकारवर": 4336,
      "महिना": 4337,
      "ंनंतर": 4338,
      "31": 4339,
      "पालिका": 4340,
      "कसं": 4341,
      "तप": 4342,
      "सीबीआय": 4343,
      "याआधी": 4344,
      "इंटरनेट": 4345,
      "नावाने": 4346,
      "ल्ट": 4347,
      "जेवण": 4348,
      "तात्काळ": 4349,
      "ग्रुप": 4350,
      "पीक": 4351,
      "मोबाइल": 4352,
      "म्ब": 4353,
      "ग्राहक": 4354,
      "सृष्टी": 4355,
      "ज्ञात": 4356,
      "नेस": 4357,
      "वायला": 4358,
      "संदीप": 4359,
      "कर्णी": 4360,
      "ंबद्दल": 4361,
      "चर्य": 4362,
      "समितीच्या": 4363,
      "कार्यकारी": 4364,
      "मुंबईच्या": 4365,
      "सीमा": 4366,
      "धनंजय": 4367,
      "70": 4368,
      "फिल्": 4369,
      "पक्षनेते": 4370,
      "बाजारपे": 4371,
      "मिश्र": 4372,
      "वाही": 4373,
      "मानवी": 4374,
      "प्रसाद": 4375,
      "त्यानं": 4376,
      "कीत": 4377,
      "वीट": 4378,
      "असाल": 4379,
      "ठ्ठ": 4380,
      "थक": 4381,
      "मध्येही": 4382,
      "मूल्य": 4383,
      "सायकल": 4384,
      "वैयक्तिक": 4385,
      "सुरक्षे": 4386,
      "ol": 4387,
      "रल": 4388,
      "अज": 4389,
      "ing": 4390,
      "ठरणार": 4391,
      "घेतलेल्या": 4392,
      "धमकी": 4393,
      "लाट": 4394,
      "मैत्री": 4395,
      "टप्प्यात": 4396,
      "चत": 4397,
      "ंबि": 4398,
      "डिस्": 4399,
      "क्रांती": 4400,
      "अहमदनगर": 4401,
      "पुरी": 4402,
      "अडक": 4403,
      "व्यक्तीला": 4404,
      "खोल": 4405,
      "घेतलं": 4406,
      "हीच": 4407,
      "पिक": 4408,
      "संघाचे": 4409,
      "नव्याने": 4410,
      "महेश": 4411,
      "हद्दी": 4412,
      "निषेध": 4413,
      "डॉलर": 4414,
      "कॉर्": 4415,
      "ट्यू": 4416,
      "प्रगती": 4417,
      "रेड": 4418,
      "वर्क": 4419,
      "खात्री": 4420,
      "पुस्तक": 4421,
      "त्सव": 4422,
      "गौर": 4423,
      "ट्रम्प": 4424,
      "पाया": 4425,
      "दगड": 4426,
      "वाजा": 4427,
      "गॅस": 4428,
      "hi": 4429,
      "नने": 4430,
      "सोसायटी": 4431,
      "वेळेत": 4432,
      "दरात": 4433,
      "कांकडून": 4434,
      "प्राण": 4435,
      "अवलंबून": 4436,
      "सभापती": 4437,
      "दिना": 4438,
      "रेशन": 4439,
      "कंत्रा": 4440,
      "आश्चर्य": 4441,
      "काढण्यात": 4442,
      "कोर्टाने": 4443,
      "त्यातच": 4444,
      "वाणी": 4445,
      "लाटे": 4446,
      "वरच": 4447,
      "शेतकर": 4448,
      "छाया": 4449,
      "घडा": 4450,
      "इतक्या": 4451,
      "कर्मचाऱ्यांना": 4452,
      "याचं": 4453,
      "सगळी": 4454,
      "ठरा": 4455,
      "मार्केट": 4456,
      "उंची": 4457,
      "महसूल": 4458,
      "अक्षय": 4459,
      "जन्य": 4460,
      "गाळ": 4461,
      "सेना": 4462,
      "बहुता": 4463,
      "वेतन": 4464,
      "वाढते": 4465,
      "खेळी": 4466,
      "सत्र": 4467,
      "ओबीसी": 4468,
      "अंबा": 4469,
      "जसे": 4470,
      "खाजगी": 4471,
      "राजकारणात": 4472,
      "नातील": 4473,
      "सिड": 4474,
      "बहुतेक": 4475,
      "दिग्दर्शक": 4476,
      "ताण": 4477,
      "सोयी": 4478,
      "देण्या": 4479,
      "आत्ता": 4480,
      "अरे": 4481,
      "फेक": 4482,
      "तै": 4483,
      "भेद": 4484,
      "विर": 4485,
      "राहू": 4486,
      "पला": 4487,
      "अमेरिकेत": 4488,
      "धाना": 4489,
      "पुरस्": 4490,
      "व्यवस्थापन": 4491,
      "तेच्या": 4492,
      "चला": 4493,
      "मर्यादा": 4494,
      "वाढत्या": 4495,
      "सून": 4496,
      "मोट": 4497,
      "बनाव": 4498,
      "किंमती": 4499,
      "आनंदा": 4500,
      "मेश": 4501,
      "नम": 4502,
      "वाहतु": 4503,
      "ग्रे": 4504,
      "शेट्टी": 4505,
      "id": 4506,
      "बूत": 4507,
      "वैध": 4508,
      "्यांची": 4509,
      "सगळं": 4510,
      "वर्गा": 4511,
      "ारे": 4512,
      "अमेरिक": 4513,
      "प्रदू": 4514,
      "परंप": 4515,
      "दोष": 4516,
      "अग्र": 4517,
      "यास": 4518,
      "त्मक": 4519,
      "व्याज": 4520,
      "कोठ": 4521,
      "विष्ट": 4522,
      "दीर्घ": 4523,
      "ंटि": 4524,
      "व्यापारी": 4525,
      "त्सा": 4526,
      "बसून": 4527,
      "होम": 4528,
      "रत्नागिरी": 4529,
      "टणी": 4530,
      "लावले": 4531,
      "बच्च": 4532,
      "बिल": 4533,
      "डोळे": 4534,
      "रीज": 4535,
      "विभागी": 4536,
      "गडकरी": 4537,
      "तालि": 4538,
      "टाटा": 4539,
      "प्रसि": 4540,
      "ट्रॉ": 4541,
      "प्रत्येकी": 4542,
      "अफगाणि": 4543,
      "वर्ती": 4544,
      "विभागीय": 4545,
      "इड": 4546,
      "देसाई": 4547,
      "महत्त्वाचा": 4548,
      "खबर": 4549,
      "पडतो": 4550,
      "हास": 4551,
      "पिंग": 4552,
      "वृत्तसंस्था": 4553,
      "प्रत्यक्षात": 4554,
      "विकत": 4555,
      "श्रील": 4556,
      "स्टेट": 4557,
      "पट्ट": 4558,
      "नोटीस": 4559,
      "am": 4560,
      "शिरा": 4561,
      "सज्ज": 4562,
      "45": 4563,
      "कामात": 4564,
      "जान": 4565,
      "वरही": 4566,
      "शिवसेनेच्या": 4567,
      "केरळ": 4568,
      "सरपंच": 4569,
      "तेने": 4570,
      "शिफार": 4571,
      "चार्ज": 4572,
      "रूम": 4573,
      "यावर्षी": 4574,
      "घ्यावा": 4575,
      "बातम्या": 4576,
      "सारा": 4577,
      "जिथे": 4578,
      "विनोद": 4579,
      "तीश": 4580,
      "ल्यात": 4581,
      "गोंधळ": 4582,
      "प्रव": 4583,
      "परंपरा": 4584,
      "नांदे": 4585,
      "पत्ता": 4586,
      "पीएम": 4587,
      "जागृती": 4588,
      "प्रमाणेच": 4589,
      "नेतृत्व": 4590,
      "रायगड": 4591,
      "गोदर": 4592,
      "राहिली": 4593,
      "संमेल": 4594,
      "मोहीम": 4595,
      "ंगिक": 4596,
      "दिक": 4597,
      "जवाना": 4598,
      "नमु": 4599,
      "खं": 4600,
      "शारी": 4601,
      "80": 4602,
      "असावा": 4603,
      "यस": 4604,
      "सोने": 4605,
      "देण्यास": 4606,
      "लक्ष्य": 4607,
      "टाकून": 4608,
      "कुणाला": 4609,
      "तरतू": 4610,
      "मिलि": 4611,
      "वंचित": 4612,
      "सक्रिय": 4613,
      "सर्वत्र": 4614,
      "नव्हतं": 4615,
      "तिहासिक": 4616,
      "तिकीट": 4617,
      "आमचे": 4618,
      "साठा": 4619,
      "बिया": 4620,
      "महो": 4621,
      "संचाल": 4622,
      "म्मद": 4623,
      "राजधानी": 4624,
      "वरच्या": 4625,
      "वाग": 4626,
      "मुर": 4627,
      "दुकान": 4628,
      "मने": 4629,
      "आदर्श": 4630,
      "बाबी": 4631,
      "ख्": 4632,
      "फसवणूक": 4633,
      "अमरा": 4634,
      "असत": 4635,
      "जाग": 4636,
      "कंपनीच्या": 4637,
      "अमेरिकन": 4638,
      "महिलांना": 4639,
      "आयसी": 4640,
      "राज्यमंत्री": 4641,
      "राजेंद्र": 4642,
      "पार्क": 4643,
      "ुक": 4644,
      "चाली": 4645,
      "यावरून": 4646,
      "आढळले": 4647,
      "विदर्भ": 4648,
      "टीएम": 4649,
      "ओला": 4650,
      "िकल": 4651,
      "ज्यात": 4652,
      "वासी": 4653,
      "विवे": 4654,
      "सवि": 4655,
      "जना": 4656,
      "असूनही": 4657,
      "मेळा": 4658,
      "ठेवला": 4659,
      "देतो": 4660,
      "नांदेड": 4661,
      "आकाश": 4662,
      "विमानतळा": 4663,
      "नीट": 4664,
      "घाबर": 4665,
      "ऱ्": 4666,
      "हक्क": 4667,
      "शाखा": 4668,
      "ग्रॅम": 4669,
      "ऐतिहासिक": 4670,
      "उपक्रम": 4671,
      "कडील": 4672,
      "आमचा": 4673,
      "सध्याच्या": 4674,
      "गेलेल्या": 4675,
      "खरा": 4676,
      "पंढ": 4677,
      "जरे": 4678,
      "सिंधु": 4679,
      "डोक्या": 4680,
      "महाविद्यालया": 4681,
      "क्लि": 4682,
      "व्हर्": 4683,
      "कांदा": 4684,
      "त्तम": 4685,
      "स्ला": 4686,
      "आपल्याकडे": 4687,
      "फूट": 4688,
      "मॉडेल": 4689,
      "वसु": 4690,
      "लावण्यात": 4691,
      "दिसतात": 4692,
      "उपयुक्त": 4693,
      "त्वात": 4694,
      "५००": 4695,
      "वतो": 4696,
      "धडक": 4697,
      "करणार्या": 4698,
      "बेस्ट": 4699,
      "कृष्": 4700,
      "पारं": 4701,
      "लोड": 4702,
      "कुलकर्णी": 4703,
      "दहशतवाद्या": 4704,
      "पगार": 4705,
      "विल": 4706,
      "In": 4707,
      "ंहून": 4708,
      "जाण्याची": 4709,
      "लागलं": 4710,
      "गरीब": 4711,
      "तोंडा": 4712,
      "समजा": 4713,
      "उघडकीस": 4714,
      "प्रणा": 4715,
      "सुच": 4716,
      "चेहरा": 4717,
      "हेल्": 4718,
      "अमेरिका": 4719,
      "शेवटच्या": 4720,
      "सेज": 4721,
      "संताप": 4722,
      "आधुनिक": 4723,
      "स्टाग्राम": 4724,
      "झाल्यामुळे": 4725,
      "सुभाष": 4726,
      "रुन": 4727,
      "यंत्रणे": 4728,
      "ऊर्जा": 4729,
      "कळत": 4730,
      "महत्वाचे": 4731,
      "शुद्ध": 4732,
      "लोकांची": 4733,
      "रचना": 4734,
      "सकाळ": 4735,
      "काँग्रेसने": 4736,
      "अधिकाऱ्यांनी": 4737,
      "उपाध्यक्ष": 4738,
      "लैंगिक": 4739,
      "पूर्वक": 4740,
      "अगोदर": 4741,
      "व्याया": 4742,
      "प्ती": 4743,
      "माझं": 4744,
      "मानी": 4745,
      "राणा": 4746,
      "फर्": 4747,
      "संतोष": 4748,
      "देते": 4749,
      "पाहत": 4750,
      "मुलं": 4751,
      "तरतूद": 4752,
      "म्हणाल्या": 4753,
      "पावसाळ्यात": 4754,
      "संपत्ती": 4755,
      "तांना": 4756,
      "ठेवली": 4757,
      "दीपक": 4758,
      "सण": 4759,
      "नाट्य": 4760,
      "घेण्याचा": 4761,
      "ंबरोबर": 4762,
      "ठरेल": 4763,
      "मोहिमे": 4764,
      "९९": 4765,
      "il": 4766,
      "राजू": 4767,
      "हिंसा": 4768,
      "ंबिवली": 4769,
      "रुपयांच्या": 4770,
      "सिस": 4771,
      "वेळेस": 4772,
      "चक्क": 4773,
      "जयंत": 4774,
      "ऑफिस": 4775,
      "पंतप्रधाना": 4776,
      "स्थिर": 4777,
      "ग्रामपंचाय": 4778,
      "मतदारसंघ": 4779,
      "पून": 4780,
      "निश": 4781,
      "नजर": 4782,
      "एखादा": 4783,
      "ऑपरे": 4784,
      "गेलं": 4785,
      "महाग": 4786,
      "आगी": 4787,
      "तरा": 4788,
      "शेल": 4789,
      "स्वच्छता": 4790,
      "गंगा": 4791,
      "ऑस्ट्रेलिया": 4792,
      "डोंबिवली": 4793,
      "अन्यथा": 4794,
      "इंडियन": 4795,
      "ॉन": 4796,
      "औषधा": 4797,
      "दोघांनी": 4798,
      "तोपर्यंत": 4799,
      "वेगळ्या": 4800,
      "कोरोनाचे": 4801,
      "म्यु": 4802,
      "राज्यपाल": 4803,
      "कान": 4804,
      "मशी": 4805,
      "जबरद": 4806,
      "होताना": 4807,
      "थोडे": 4808,
      "99": 4809,
      "भविष्यात": 4810,
      "निदर्श": 4811,
      "फलंदाजी": 4812,
      "महाराष्ट्राच्या": 4813,
      "भंग": 4814,
      "गावी": 4815,
      "वक्तव्या": 4816,
      "२०२१": 4817,
      "पंचायत": 4818,
      "व्यास": 4819,
      "एशन": 4820,
      "षित": 4821,
      "७५": 4822,
      "पुरावा": 4823,
      "गोळा": 4824,
      "वेस्ट": 4825,
      "हळूहळू": 4826,
      "पत्रे": 4827,
      "यावी": 4828,
      "अम": 4829,
      "डीसी": 4830,
      "द्यावा": 4831,
      "उभी": 4832,
      "मोठं": 4833,
      "किरण": 4834,
      "हस्त": 4835,
      "वाढला": 4836,
      "साईट": 4837,
      "चाचण्या": 4838,
      "लेखा": 4839,
      "सुवर्ण": 4840,
      "पेपर": 4841,
      "मुलांच्या": 4842,
      "पदाची": 4843,
      "म्हणाली": 4844,
      "अडथ": 4845,
      "व्हॉट्स": 4846,
      "संख्येने": 4847,
      "संघाने": 4848,
      "जनतेला": 4849,
      "मजबूत": 4850,
      "आठवण": 4851,
      "अनेकांना": 4852,
      "हवं": 4853,
      "समू": 4854,
      "किशोर": 4855,
      "होई": 4856,
      "कारणी": 4857,
      "जयंती": 4858,
      "राहतात": 4859,
      "प्राधान्य": 4860,
      "हैदरा": 4861,
      "लोकांचा": 4862,
      "प्रधान": 4863,
      "विचारले": 4864,
      "तब": 4865,
      "घातला": 4866,
      "महात्": 4867,
      "परदेशी": 4868,
      "वयाच्या": 4869,
      "लाँ": 4870,
      "तेश": 4871,
      "मरण": 4872,
      "दागि": 4873,
      "फाई": 4874,
      "थोडी": 4875,
      "लेलं": 4876,
      "तिघा": 4877,
      "ंद्रा": 4878,
      "दुर्दै": 4879,
      "पुढा": 4880,
      "खराब": 4881,
      "धीर": 4882,
      "पल": 4883,
      "महाजन": 4884,
      "सर्वसाधारण": 4885,
      "स्त्रिया": 4886,
      "कित्ये": 4887,
      "कामाला": 4888,
      "हृदय": 4889,
      "अज्ञात": 4890,
      "्यातून": 4891,
      "णीच्या": 4892,
      "खुलासा": 4893,
      "पक्षात": 4894,
      "नगरसेव": 4895,
      "सुट्टी": 4896,
      "कुठल्याही": 4897,
      "ऑफर": 4898,
      "आजी": 4899,
      "माघ": 4900,
      "हानी": 4901,
      "पद्धत": 4902,
      "समितीचे": 4903,
      "मुस्लिम": 4904,
      "पुर्": 4905,
      "परिणामी": 4906,
      "यादीत": 4907,
      "उदाहर": 4908,
      "कपात": 4909,
      "आणून": 4910,
      "पदाधिकारी": 4911,
      "दिलेली": 4912,
      "उत्सा": 4913,
      "थर": 4914,
      "गू": 4915,
      "शौ": 4916,
      "कमि": 4917,
      "अंतरावर": 4918,
      "बाबासाहेब": 4919,
      "कारखान्या": 4920,
      "ुत": 4921,
      "गणेशो": 4922,
      "et": 4923,
      "टोला": 4924,
      "तोच": 4925,
      "ट्वीट": 4926,
      "किमती": 4927,
      "सीमे": 4928,
      "अडी": 4929,
      "संसर्गा": 4930,
      "कातील": 4931,
      "होणारी": 4932,
      "पोर्": 4933,
      "हैदराबाद": 4934,
      "एकीकडे": 4935,
      "णीय": 4936,
      "महत्त्वाच्या": 4937,
      "न्यायाधी": 4938,
      "सक्षम": 4939,
      "कार्यकर्त्यांनी": 4940,
      "मोहम्मद": 4941,
      "ट्रिक": 4942,
      "सांभाळ": 4943,
      "मनी": 4944,
      "पर्यटन": 4945,
      "प्रवासा": 4946,
      "चौक": 4947,
      "घ्यायला": 4948,
      "वर्गी": 4949,
      "शीर": 4950,
      "विश्वच": 4951,
      "पार्ट": 4952,
      "प्रेमी": 4953,
      "पालघर": 4954,
      "घाटन": 4955,
      "कोला": 4956,
      "जेणे": 4957,
      "करांनी": 4958,
      "ंविरोधात": 4959,
      "रांनी": 4960,
      "केशन": 4961,
      "कोलका": 4962,
      "कर्जा": 4963,
      "यच्या": 4964,
      "डीए": 4965,
      "राखी": 4966,
      "मैदानात": 4967,
      "मोठय़ा": 4968,
      "सेवक": 4969,
      "घेण्या": 4970,
      "निघून": 4971,
      "पहिल्यांदाच": 4972,
      "देणाऱ्या": 4973,
      "विषयावर": 4974,
      "लेखक": 4975,
      "अधिवेश": 4976,
      "पौ": 4977,
      "क्ते": 4978,
      "मालमत्ता": 4979,
      "व्यापार": 4980,
      "अहवाला": 4981,
      "बोर्": 4982,
      "दिवसें": 4983,
      "गज": 4984,
      "आफ्रि": 4985,
      "रोगा": 4986,
      "ह्": 4987,
      "जास्तीत": 4988,
      "चौथ्या": 4989,
      "ठरली": 4990,
      "रांच्या": 4991,
      "सवल": 4992,
      "व्हायला": 4993,
      "नक्ष": 4994,
      "अजय": 4995,
      "अशीच": 4996,
      "अमरावती": 4997,
      "्यासाठी": 4998,
      "अध्यक्षा": 4999
    },
    "merges": [
      [
        "य",
        "ा"
      ],
      [
        "्",
        "या"
      ],
      [
        "ा",
        "र"
      ],
      [
        "्",
        "र"
      ],
      [
        "ल",
        "ा"
      ],
      [
        "न",
        "ा"
      ],
      [
        "ह",
        "े"
      ],
      [
        "क",
        "ा"
      ],
      [
        "र",
        "्"
      ],
      [
        "ा",
        "त"
      ],
      [
        "्",
        "य"
      ],
      [
        "ल",
        "े"
      ],
      [
        "आ",
        "हे"
      ],
      [
        "व",
        "ा"
      ],
      [
        "च",
        "्या"
      ],
      [
        "स",
        "ा"
      ],
      [
        "क",
        "र"
      ],
      [
        "ह",
        "ी"
      ],
      [
        "त",
        "ी"
      ],
      [
        "स",
        "्"
      ],
      [
        "न",
        "े"
      ],
      [
        "ल",
        "ी"
      ],
      [
        "म",
        "ा"
      ],
      [
        "त",
        "्या"
      ],
      [
        "च",
        "ा"
      ],
      [
        "त",
        "ा"
      ],
      [
        "क",
        "्"
      ],
      [
        "ू",
        "न"
      ],
      [
        "ल",
        "्या"
      ],
      [
        "र",
        "ा"
      ],
      [
        "प",
        "्र"
      ],
      [
        "व",
        "ि"
      ],
      [
        "क",
        "े"
      ],
      [
        "च",
        "ी"
      ],
      [
        "प",
        "ा"
      ],
      [
        "ण",
        "्या"
      ],
      [
        "च",
        "े"
      ],
      [
        "अ",
        "स"
      ],
      [
        "ह",
        "ो"
      ],
      [
        "त",
        "े"
      ],
      [
        "ह",
        "ा"
      ],
      [
        "न",
        "ी"
      ],
      [
        "ं",
        "त"
      ],
      [
        "व",
        "र"
      ],
      [
        "म",
        "ु"
      ],
      [
        "न",
        "ि"
      ],
      [
        "आ",
        "ण"
      ],
      [
        "क",
        "ार"
      ],
      [
        "ं",
        "नी"
      ],
      [
        "स",
        "ं"
      ],
      [
        "आण",
        "ि"
      ],
      [
        "द",
        "ि"
      ],
      [
        "द",
        "े"
      ],
      [
        "क्",
        "ष"
      ],
      [
        "ह",
        "ि"
      ],
      [
        "म",
        "ध"
      ],
      [
        "ण",
        "ा"
      ],
      [
        "व",
        "े"
      ],
      [
        "ब",
        "ा"
      ],
      [
        "ी",
        "ल"
      ],
      [
        "त",
        "्"
      ],
      [
        "ं",
        "ग"
      ],
      [
        "्य",
        "े"
      ],
      [
        "म",
        "्"
      ],
      [
        "ठ",
        "ी"
      ],
      [
        "ज",
        "ा"
      ],
      [
        "भ",
        "ा"
      ],
      [
        "ं",
        "द"
      ],
      [
        "झ",
        "ा"
      ],
      [
        "त",
        "र"
      ],
      [
        "ि",
        "त"
      ],
      [
        "ं",
        "ना"
      ],
      [
        "ं",
        "च्या"
      ],
      [
        "र",
        "ो"
      ],
      [
        "स",
        "ु"
      ],
      [
        "य",
        "े"
      ],
      [
        "क",
        "ो"
      ],
      [
        "सा",
        "ठी"
      ],
      [
        "म",
        "ि"
      ],
      [
        "ग",
        "ा"
      ],
      [
        "मध",
        "्ये"
      ],
      [
        "्",
        "ट"
      ],
      [
        "प",
        "र"
      ],
      [
        "द",
        "ा"
      ],
      [
        "श",
        "ा"
      ],
      [
        "क",
        "ी"
      ],
      [
        "ळ",
        "े"
      ],
      [
        "ल",
        "्"
      ],
      [
        "ण",
        "ार"
      ],
      [
        "स",
        "े"
      ],
      [
        "म",
        "ी"
      ],
      [
        "ि",
        "क"
      ],
      [
        "व",
        "ी"
      ],
      [
        "ण",
        "ी"
      ],
      [
        "व",
        "्"
      ],
      [
        "प",
        "ु"
      ],
      [
        "ण्या",
        "त"
      ],
      [
        "म",
        "ो"
      ],
      [
        "र",
        "ु"
      ],
      [
        "म्",
        "ह"
      ],
      [
        "ना",
        "ही"
      ],
      [
        "ण",
        "े"
      ],
      [
        "न",
        "्"
      ],
      [
        "ं",
        "ड"
      ],
      [
        "श",
        "ी"
      ],
      [
        "ल",
        "ि"
      ],
      [
        "्र",
        "ी"
      ],
      [
        "त",
        "ो"
      ],
      [
        "आहे",
        "त"
      ],
      [
        "ं",
        "ब"
      ],
      [
        "र",
        "ी"
      ],
      [
        "द",
        "्"
      ],
      [
        "ार",
        "ा"
      ],
      [
        "त",
        "ि"
      ],
      [
        "श",
        "ि"
      ],
      [
        "ष",
        "्ट"
      ],
      [
        "ए",
        "क"
      ],
      [
        "घ",
        "े"
      ],
      [
        "क",
        "ड"
      ],
      [
        "स्",
        "थ"
      ],
      [
        "रा",
        "ज"
      ],
      [
        "मु",
        "ळे"
      ],
      [
        "ळ",
        "ा"
      ],
      [
        "ल",
        "ं"
      ],
      [
        "आ",
        "प"
      ],
      [
        "द",
        "ी"
      ],
      [
        "ट",
        "ी"
      ],
      [
        "ज",
        "ी"
      ],
      [
        "ळ",
        "ी"
      ],
      [
        "प",
        "ो"
      ],
      [
        "या",
        "ंनी"
      ],
      [
        "ती",
        "ल"
      ],
      [
        "क",
        "ि"
      ],
      [
        "प",
        "ू"
      ],
      [
        "र",
        "े"
      ],
      [
        "्र",
        "ा"
      ],
      [
        "व",
        "ार"
      ],
      [
        "ं",
        "ची"
      ],
      [
        "ज",
        "े"
      ],
      [
        "स",
        "र"
      ],
      [
        "ध",
        "ा"
      ],
      [
        "म",
        "े"
      ],
      [
        "स",
        "ो"
      ],
      [
        "ले",
        "ल्या"
      ],
      [
        "ऱ",
        "्या"
      ],
      [
        "ख",
        "ा"
      ],
      [
        "व",
        "र्"
      ],
      [
        "स",
        "र्"
      ],
      [
        "त",
        "ात"
      ],
      [
        "ल",
        "ो"
      ],
      [
        "ग",
        "े"
      ],
      [
        "ट",
        "ा"
      ],
      [
        "ंत",
        "र"
      ],
      [
        "ध",
        "ी"
      ],
      [
        "ड",
        "ी"
      ],
      [
        "ं",
        "चा"
      ],
      [
        "श",
        "े"
      ],
      [
        "अस",
        "े"
      ],
      [
        "म्ह",
        "ण"
      ],
      [
        "स",
        "ि"
      ],
      [
        "क",
        "्र"
      ],
      [
        "श",
        "्"
      ],
      [
        "म",
        "ार"
      ],
      [
        "त",
        "ु"
      ],
      [
        "स",
        "ी"
      ],
      [
        "म",
        "ात"
      ],
      [
        "हो",
        "ते"
      ],
      [
        "के",
        "ली"
      ],
      [
        "न",
        "ंतर"
      ],
      [
        "द",
        "ु"
      ],
      [
        "त",
        "्र"
      ],
      [
        "च",
        "ं"
      ],
      [
        "का",
        "ही"
      ],
      [
        "्या",
        "त"
      ],
      [
        "व",
        "्य"
      ],
      [
        "र",
        "ि"
      ],
      [
        "भ",
        "ार"
      ],
      [
        "ज",
        "ात"
      ],
      [
        "क",
        "ु"
      ],
      [
        "मा",
        "न"
      ],
      [
        "द",
        "्या"
      ],
      [
        "ज",
        "ि"
      ],
      [
        "स्",
        "ट"
      ],
      [
        "पा",
        "स"
      ],
      [
        "व",
        "ड"
      ],
      [
        "अ",
        "ध"
      ],
      [
        "च",
        "ार"
      ],
      [
        "द",
        "ार"
      ],
      [
        "ठ",
        "ा"
      ],
      [
        "प",
        "र्"
      ],
      [
        "श",
        "क"
      ],
      [
        "ं",
        "चे"
      ],
      [
        "य",
        "ो"
      ],
      [
        "ग",
        "्"
      ],
      [
        "घ",
        "ा"
      ],
      [
        "के",
        "ले"
      ],
      [
        "र",
        "ात"
      ],
      [
        "म",
        "ह"
      ],
      [
        "कर",
        "ण्या"
      ],
      [
        "कर",
        "ण्यात"
      ],
      [
        "ग",
        "ु"
      ],
      [
        "स्",
        "त"
      ],
      [
        "र",
        "ू"
      ],
      [
        "ला",
        "ग"
      ],
      [
        "म",
        "ंत"
      ],
      [
        "न",
        "ु"
      ],
      [
        "कर",
        "ा"
      ],
      [
        "र्",
        "ण"
      ],
      [
        "अस",
        "ल्या"
      ],
      [
        "द",
        "ो"
      ],
      [
        "प",
        "े"
      ],
      [
        "प",
        "ी"
      ],
      [
        "के",
        "ला"
      ],
      [
        "क्",
        "त"
      ],
      [
        "उ",
        "प"
      ],
      [
        "स",
        "ार"
      ],
      [
        "या",
        "ंच्या"
      ],
      [
        "वर्",
        "ष"
      ],
      [
        "न",
        "्या"
      ],
      [
        "सर्",
        "व"
      ],
      [
        "द",
        "र"
      ],
      [
        "प",
        "ण"
      ],
      [
        "दे",
        "श"
      ],
      [
        "्र",
        "े"
      ],
      [
        "ड",
        "ा"
      ],
      [
        "ग",
        "ो"
      ],
      [
        "दि",
        "व"
      ],
      [
        "सा",
        "ंग"
      ],
      [
        "स्थ",
        "ा"
      ],
      [
        "क्ष",
        "ा"
      ],
      [
        "पर",
        "ि"
      ],
      [
        "व्",
        "हा"
      ],
      [
        "आ",
        "ले"
      ],
      [
        "घे",
        "त"
      ],
      [
        "म",
        "हा"
      ],
      [
        "सर",
        "कार"
      ],
      [
        "य",
        "ंत"
      ],
      [
        "हो",
        "ती"
      ],
      [
        "य",
        "ु"
      ],
      [
        "आ",
        "ता"
      ],
      [
        "कड",
        "े"
      ],
      [
        "मु",
        "ख"
      ],
      [
        "स",
        "ह"
      ],
      [
        "आप",
        "ल्या"
      ],
      [
        "ता",
        "ना"
      ],
      [
        "प",
        "्"
      ],
      [
        "ठ",
        "े"
      ],
      [
        "हो",
        "त"
      ],
      [
        "मु",
        "ंब"
      ],
      [
        "ग",
        "र"
      ],
      [
        "ात",
        "ील"
      ],
      [
        "का",
        "य"
      ],
      [
        "ड",
        "ि"
      ],
      [
        "वा",
        "ढ"
      ],
      [
        "मुंब",
        "ई"
      ],
      [
        "आ",
        "ज"
      ],
      [
        "र्",
        "थ"
      ],
      [
        "हो",
        "ता"
      ],
      [
        "ं",
        "ध"
      ],
      [
        "ड",
        "े"
      ],
      [
        "क",
        "र्"
      ],
      [
        "ऊ",
        "न"
      ],
      [
        "ख",
        "े"
      ],
      [
        "द्",
        "ध"
      ],
      [
        "ब",
        "त"
      ],
      [
        "ग",
        "ी"
      ],
      [
        "थ",
        "े"
      ],
      [
        "झा",
        "ले"
      ],
      [
        "ट",
        "े"
      ],
      [
        "पास",
        "ून"
      ],
      [
        "स्",
        "व"
      ],
      [
        "ब",
        "ो"
      ],
      [
        "च",
        "ि"
      ],
      [
        "व",
        "्या"
      ],
      [
        "त्या",
        "मुळे"
      ],
      [
        "का",
        "म"
      ],
      [
        "मात",
        "्र"
      ],
      [
        "न",
        "ो"
      ],
      [
        "त्या",
        "ंनी"
      ],
      [
        "मि",
        "ळ"
      ],
      [
        "वार",
        "ी"
      ],
      [
        "च",
        "ित"
      ],
      [
        "त",
        "्य"
      ],
      [
        "मा",
        "ण"
      ],
      [
        "ए",
        "का"
      ],
      [
        "म",
        "हि"
      ],
      [
        "ंद",
        "्र"
      ],
      [
        "अ",
        "ने"
      ],
      [
        "ज",
        "न"
      ],
      [
        "उ",
        "त्"
      ],
      [
        "ण्या",
        "साठी"
      ],
      [
        "ज",
        "ार"
      ],
      [
        "अ",
        "सा"
      ],
      [
        "प",
        "ड"
      ],
      [
        "न",
        "ं"
      ],
      [
        "ष्ट",
        "्र"
      ],
      [
        "अस",
        "ून"
      ],
      [
        "व्",
        "ह"
      ],
      [
        "व",
        "ळ"
      ],
      [
        "मा",
        "हि"
      ],
      [
        "को",
        "रो"
      ],
      [
        "आ",
        "ली"
      ],
      [
        "त्या",
        "ंच्या"
      ],
      [
        "कोरो",
        "ना"
      ],
      [
        "घ",
        "ट"
      ],
      [
        "ई",
        "ल"
      ],
      [
        "पर्",
        "यंत"
      ],
      [
        "ि",
        "का"
      ],
      [
        "मंत",
        "्री"
      ],
      [
        "द",
        "र्"
      ],
      [
        "ब",
        "्"
      ],
      [
        "ल",
        "या"
      ],
      [
        "झा",
        "ली"
      ],
      [
        "माहि",
        "ती"
      ],
      [
        "श",
        "न"
      ],
      [
        "अने",
        "क"
      ],
      [
        "प",
        "ार"
      ],
      [
        "कर",
        "ून"
      ],
      [
        "भा",
        "ज"
      ],
      [
        "ं",
        "वर"
      ],
      [
        "ष",
        "्"
      ],
      [
        "न",
        "स"
      ],
      [
        "वे",
        "ळी"
      ],
      [
        "जि",
        "ल्"
      ],
      [
        "ब",
        "ी"
      ],
      [
        "झा",
        "ला"
      ],
      [
        "भ",
        "ू"
      ],
      [
        "सु",
        "रू"
      ],
      [
        "स",
        "म"
      ],
      [
        "म्हण",
        "ून"
      ],
      [
        "रु",
        "ग्"
      ],
      [
        "अ",
        "शी"
      ],
      [
        "णा",
        "ऱ्या"
      ],
      [
        "आ",
        "रो"
      ],
      [
        "नि",
        "र्"
      ],
      [
        "भा",
        "ग"
      ],
      [
        "प",
        "ि"
      ],
      [
        "कि",
        "ं"
      ],
      [
        "कड",
        "ून"
      ],
      [
        "व",
        "ात"
      ],
      [
        "भ",
        "े"
      ],
      [
        "कार",
        "्य"
      ],
      [
        "तर",
        "ी"
      ],
      [
        "ण्या",
        "ची"
      ],
      [
        "का",
        "ळ"
      ],
      [
        "नि",
        "वड"
      ],
      [
        "ट",
        "ो"
      ],
      [
        "ज",
        "ो"
      ],
      [
        "मार",
        "्"
      ],
      [
        "भ",
        "ि"
      ],
      [
        "ं",
        "ट"
      ],
      [
        "ध",
        "ार"
      ],
      [
        "कर",
        "त"
      ],
      [
        "आ",
        "ला"
      ],
      [
        "फ",
        "ो"
      ],
      [
        "मा",
        "ग"
      ],
      [
        "मह",
        "ारा"
      ],
      [
        "च",
        "्"
      ],
      [
        "य",
        "ला"
      ],
      [
        "प्र",
        "ा"
      ],
      [
        "त्या",
        "ंना"
      ],
      [
        "लो",
        "क"
      ],
      [
        "त",
        "से"
      ],
      [
        "ं",
        "मध्ये"
      ],
      [
        "ब",
        "र"
      ],
      [
        "दो",
        "न"
      ],
      [
        "रा",
        "ह"
      ],
      [
        "मुख",
        "्य"
      ],
      [
        "पो",
        "लि"
      ],
      [
        "दा",
        "ख"
      ],
      [
        "भ",
        "र"
      ],
      [
        "चा",
        "ल"
      ],
      [
        "दि",
        "ली"
      ],
      [
        "द",
        "ल"
      ],
      [
        "म",
        "त"
      ],
      [
        "२",
        "०"
      ],
      [
        "ं",
        "प"
      ],
      [
        "पू",
        "र्"
      ],
      [
        "ज",
        "्"
      ],
      [
        "पू",
        "र्ण"
      ],
      [
        "ंद",
        "ा"
      ],
      [
        "न्",
        "हा"
      ],
      [
        "अ",
        "शा"
      ],
      [
        "फ",
        "े"
      ],
      [
        "स",
        "ू"
      ],
      [
        "अस",
        "ं"
      ],
      [
        "म्",
        "ही"
      ],
      [
        "पू",
        "र"
      ],
      [
        "झा",
        "ल्या"
      ],
      [
        "दे",
        "ख"
      ],
      [
        "रु",
        "प"
      ],
      [
        "पु",
        "ढ"
      ],
      [
        "ल",
        "क्ष"
      ],
      [
        "आ",
        "य"
      ],
      [
        "वा",
        "ह"
      ],
      [
        "सांग",
        "ित"
      ],
      [
        "स",
        "मा"
      ],
      [
        "कर",
        "ी"
      ],
      [
        "तसे",
        "च"
      ],
      [
        "म्हण",
        "जे"
      ],
      [
        "क",
        "ृ"
      ],
      [
        "के",
        "ल्या"
      ],
      [
        "व",
        "ून"
      ],
      [
        "म",
        "्या"
      ],
      [
        "फ",
        "ा"
      ],
      [
        "श",
        "ो"
      ],
      [
        "प",
        "ट"
      ],
      [
        "ब",
        "ि"
      ],
      [
        "दि",
        "स"
      ],
      [
        "ध",
        "्या"
      ],
      [
        "सु",
        "रु"
      ],
      [
        "भाज",
        "प"
      ],
      [
        "को",
        "ण"
      ],
      [
        "2",
        "0"
      ],
      [
        "्रे",
        "स"
      ],
      [
        "ब",
        "े"
      ],
      [
        "किं",
        "वा"
      ],
      [
        "आ",
        "म"
      ],
      [
        "वि",
        "रो"
      ],
      [
        "देख",
        "ील"
      ],
      [
        "या",
        "ंना"
      ],
      [
        "्या",
        "तील"
      ],
      [
        "वि",
        "ष"
      ],
      [
        "गा",
        "व"
      ],
      [
        "ज",
        "य"
      ],
      [
        "चित",
        "्र"
      ],
      [
        "म",
        "ृ"
      ],
      [
        "का",
        "ंना"
      ],
      [
        "ड",
        "ॉ"
      ],
      [
        "घ",
        "ड"
      ],
      [
        "ह",
        "ात"
      ],
      [
        "शि",
        "व"
      ],
      [
        "मि",
        "ळा"
      ],
      [
        "ह",
        "जार"
      ],
      [
        "ू",
        "क"
      ],
      [
        "म्ह",
        "णा"
      ],
      [
        "क्",
        "ती"
      ],
      [
        "वि",
        "द्या"
      ],
      [
        "वा",
        "ट"
      ],
      [
        "मध",
        "ील"
      ],
      [
        "राज",
        "्य"
      ],
      [
        "थ",
        "ा"
      ],
      [
        "ु",
        "न"
      ],
      [
        "प्र",
        "ति"
      ],
      [
        "बा",
        "बत"
      ],
      [
        "ट",
        "र"
      ],
      [
        "क्ष",
        "े"
      ],
      [
        "व्य",
        "व"
      ],
      [
        "क्ष",
        "ण"
      ],
      [
        "वर्ष",
        "ा"
      ],
      [
        "ँ",
        "ग"
      ],
      [
        "न",
        "्य"
      ],
      [
        "ला",
        "व"
      ],
      [
        "क",
        "मी"
      ],
      [
        "ना",
        "त"
      ],
      [
        "म",
        "ला"
      ],
      [
        "रुग्",
        "णा"
      ],
      [
        "ळ",
        "्या"
      ],
      [
        "श",
        "ह"
      ],
      [
        "आप",
        "ण"
      ],
      [
        "हो",
        "णार"
      ],
      [
        "म",
        "न"
      ],
      [
        "ये",
        "त"
      ],
      [
        "ि",
        "या"
      ],
      [
        "ग",
        "्रा"
      ],
      [
        "ब",
        "ु"
      ],
      [
        "म्या",
        "न"
      ],
      [
        "वि",
        "चार"
      ],
      [
        "पो",
        "ली"
      ],
      [
        "कर",
        "ण"
      ],
      [
        "निवड",
        "ण"
      ],
      [
        "ना",
        "ग"
      ],
      [
        "ब",
        "ंद"
      ],
      [
        "म",
        "द"
      ],
      [
        "क",
        "ॉ"
      ],
      [
        "अ",
        "भि"
      ],
      [
        "स्थ",
        "ि"
      ],
      [
        "ण्या",
        "चा"
      ],
      [
        "शे",
        "त"
      ],
      [
        "पोलि",
        "सा"
      ],
      [
        "ंग",
        "ा"
      ],
      [
        "नि",
        "र्ण"
      ],
      [
        "दर",
        "म्यान"
      ],
      [
        "का",
        "ढ"
      ],
      [
        "शा",
        "स"
      ],
      [
        "ज",
        "्या"
      ],
      [
        "नु",
        "सार"
      ],
      [
        "स्",
        "ता"
      ],
      [
        "ख",
        "्या"
      ],
      [
        "का",
        "ँग"
      ],
      [
        "मा",
        "झ"
      ],
      [
        "पोली",
        "स"
      ],
      [
        "ि",
        "कार"
      ],
      [
        "वा",
        "स"
      ],
      [
        "वे",
        "ग"
      ],
      [
        "ध",
        "्य"
      ],
      [
        "ं",
        "क"
      ],
      [
        "काँग",
        "्रेस"
      ],
      [
        "या",
        "त"
      ],
      [
        "प्र",
        "कार"
      ],
      [
        "कार",
        "ण"
      ],
      [
        "प",
        "हि"
      ],
      [
        "च",
        "र्"
      ],
      [
        "न",
        "वी"
      ],
      [
        "न",
        "गर"
      ],
      [
        "ब",
        "ंध"
      ],
      [
        "ठे",
        "व"
      ],
      [
        "ब",
        "स"
      ],
      [
        "प",
        "त्र"
      ],
      [
        "ड",
        "ो"
      ],
      [
        "अस",
        "लेल्या"
      ],
      [
        "त",
        "या"
      ],
      [
        "मो",
        "र"
      ],
      [
        "यो",
        "ग"
      ],
      [
        "ना",
        "व"
      ],
      [
        "प्र",
        "त"
      ],
      [
        "दे",
        "शा"
      ],
      [
        "फ",
        "ि"
      ],
      [
        "म",
        "ू"
      ],
      [
        "ग",
        "्र"
      ],
      [
        "म",
        "रा"
      ],
      [
        "महारा",
        "ष्ट्र"
      ],
      [
        "प",
        "ै"
      ],
      [
        "स",
        "ात"
      ],
      [
        "सो",
        "बत"
      ],
      [
        "यो",
        "ज"
      ],
      [
        "बो",
        "ल"
      ],
      [
        "वा",
        "पर"
      ],
      [
        "आ",
        "र"
      ],
      [
        "अ",
        "र"
      ],
      [
        "ग",
        "त"
      ],
      [
        "स्थि",
        "ती"
      ],
      [
        "ए",
        "म"
      ],
      [
        "क",
        "ंप"
      ],
      [
        "ती",
        "न"
      ],
      [
        "ं",
        "साठी"
      ],
      [
        "ये",
        "थे"
      ],
      [
        "असे",
        "ल"
      ],
      [
        "च",
        "ौ"
      ],
      [
        "ले",
        "ले"
      ],
      [
        "ट",
        "ि"
      ],
      [
        "ं",
        "च"
      ],
      [
        "्री",
        "य"
      ],
      [
        "ये",
        "थ"
      ],
      [
        "त्या",
        "त"
      ],
      [
        "ला",
        "ख"
      ],
      [
        "दि",
        "ला"
      ],
      [
        "ए",
        "स"
      ],
      [
        "अध",
        "िक"
      ],
      [
        "प्र",
        "े"
      ],
      [
        "कर",
        "णार"
      ],
      [
        "ज्",
        "ञ"
      ],
      [
        "पा",
        "ट"
      ],
      [
        "द",
        "्य"
      ],
      [
        "ज",
        "ु"
      ],
      [
        "वा",
        "य"
      ],
      [
        "त्",
        "वा"
      ],
      [
        "ठ",
        "र"
      ],
      [
        "नि",
        "क"
      ],
      [
        "पा",
        "लि"
      ],
      [
        "गे",
        "ल्या"
      ],
      [
        "स",
        "मोर"
      ],
      [
        "ख",
        "ी"
      ],
      [
        "कर",
        "े"
      ],
      [
        "पूर्",
        "वी"
      ],
      [
        "दिव",
        "सा"
      ],
      [
        "त्या",
        "च्या"
      ],
      [
        "भार",
        "ती"
      ],
      [
        "ज",
        "ग"
      ],
      [
        "विरो",
        "ध"
      ],
      [
        "ू",
        "र"
      ],
      [
        "ष्ट",
        "ी"
      ],
      [
        "ल्",
        "ली"
      ],
      [
        "चा",
        "ंग"
      ],
      [
        "पा",
        "ह"
      ],
      [
        "त्",
        "ता"
      ],
      [
        "ट",
        "्र"
      ],
      [
        "की",
        "य"
      ],
      [
        "सा",
        "य"
      ],
      [
        "ंब",
        "र"
      ],
      [
        "जिल्",
        "ह"
      ],
      [
        "वा",
        "द"
      ],
      [
        "न्",
        "स"
      ],
      [
        "अस",
        "ते"
      ],
      [
        "स",
        "ध्या"
      ],
      [
        "दि",
        "ले"
      ],
      [
        "ो",
        "ल"
      ],
      [
        "दु",
        "स"
      ],
      [
        "व",
        "ृ"
      ],
      [
        "वा",
        "ई"
      ],
      [
        "वि",
        "धा"
      ],
      [
        "वा",
        "दी"
      ],
      [
        "रा",
        "ष्ट्र"
      ],
      [
        "प्र",
        "श्"
      ],
      [
        "ज",
        "र"
      ],
      [
        "य",
        "ी"
      ],
      [
        "घ",
        "ात"
      ],
      [
        "सांगित",
        "ले"
      ],
      [
        "पु",
        "र"
      ],
      [
        "स्व",
        "त"
      ],
      [
        "करण्या",
        "साठी"
      ],
      [
        "श",
        "ु"
      ],
      [
        "दाख",
        "ल"
      ],
      [
        "त्या",
        "ला"
      ],
      [
        "ये",
        "णार"
      ],
      [
        "निर्ण",
        "य"
      ],
      [
        "ट",
        "क्"
      ],
      [
        "शिव",
        "से"
      ],
      [
        "य",
        "त्"
      ],
      [
        "व",
        "ै"
      ],
      [
        "व्",
        "हि"
      ],
      [
        "वि",
        "का"
      ],
      [
        "येथ",
        "ील"
      ],
      [
        "प्र",
        "यत्"
      ],
      [
        "या",
        "वर"
      ],
      [
        "ू",
        "प"
      ],
      [
        "वे",
        "श"
      ],
      [
        "घट",
        "ना"
      ],
      [
        "असल्या",
        "चे"
      ],
      [
        "म्ह",
        "ट"
      ],
      [
        "पा",
        "ठ"
      ],
      [
        "भ",
        "ी"
      ],
      [
        "ल",
        "ु"
      ],
      [
        "ट",
        "क"
      ],
      [
        "पे",
        "क्षा"
      ],
      [
        "मो",
        "ठ"
      ],
      [
        "दे",
        "ण्यात"
      ],
      [
        "ट",
        "्"
      ],
      [
        "त्",
        "त"
      ],
      [
        "घ",
        "्या"
      ],
      [
        "ने",
        "त"
      ],
      [
        "श",
        "्य"
      ],
      [
        "भारती",
        "य"
      ],
      [
        "अ",
        "प"
      ],
      [
        "आ",
        "ल्या"
      ],
      [
        "ु",
        "की"
      ],
      [
        "ज",
        "ून"
      ],
      [
        "आ",
        "ठ"
      ],
      [
        "या",
        "ंची"
      ],
      [
        "अ",
        "नु"
      ],
      [
        "म्",
        "हा"
      ],
      [
        "ठ",
        "िका"
      ],
      [
        "स्",
        "प"
      ],
      [
        "व",
        "त"
      ],
      [
        "क",
        "ल्"
      ],
      [
        "क",
        "्या"
      ],
      [
        "त",
        "्रा"
      ],
      [
        "पु",
        "न्हा"
      ],
      [
        "ज",
        "वळ"
      ],
      [
        "दि",
        "ल्ली"
      ],
      [
        "व",
        "ले"
      ],
      [
        "दिव",
        "स"
      ],
      [
        "घ",
        "ो"
      ],
      [
        "वि",
        "ध"
      ],
      [
        "को",
        "टी"
      ],
      [
        "ल",
        "ॉ"
      ],
      [
        "शक",
        "्य"
      ],
      [
        "हे",
        "र"
      ],
      [
        "भा",
        "गा"
      ],
      [
        "म्हणा",
        "ले"
      ],
      [
        "अ",
        "र्थ"
      ],
      [
        "पा",
        "हि"
      ],
      [
        "व",
        "न"
      ],
      [
        "म",
        "ंड"
      ],
      [
        "मृ",
        "त्य"
      ],
      [
        "ती",
        "ने"
      ],
      [
        "भा",
        "व"
      ],
      [
        "मो",
        "दी"
      ],
      [
        "के",
        "लं"
      ],
      [
        "त्या",
        "नंतर"
      ],
      [
        "ह",
        "वा"
      ],
      [
        "महि",
        "ला"
      ],
      [
        "वि",
        "क"
      ],
      [
        "मुख्य",
        "मंत्री"
      ],
      [
        "खा",
        "स"
      ],
      [
        "पा",
        "ल"
      ],
      [
        "प",
        "णे"
      ],
      [
        "ब",
        "न"
      ],
      [
        "च्",
        "छ"
      ],
      [
        "प्रयत्",
        "न"
      ],
      [
        "प्र",
        "माण"
      ],
      [
        "का",
        "ंनी"
      ],
      [
        "सा",
        "म"
      ],
      [
        "ग",
        "ि"
      ],
      [
        "आ",
        "म्ही"
      ],
      [
        "झा",
        "लेल्या"
      ],
      [
        "त",
        "ं"
      ],
      [
        "िकार",
        "ी"
      ],
      [
        "स",
        "ग"
      ],
      [
        "जिल्",
        "हा"
      ],
      [
        "पाट",
        "ील"
      ],
      [
        "तया",
        "र"
      ],
      [
        "ार",
        "ी"
      ],
      [
        "ह",
        "ु"
      ],
      [
        "त्",
        "व"
      ],
      [
        "भार",
        "ता"
      ],
      [
        "व",
        "ली"
      ],
      [
        "य",
        "क"
      ],
      [
        "प",
        "ात"
      ],
      [
        "श",
        "्री"
      ],
      [
        "व",
        "ण"
      ],
      [
        "अस",
        "ताना"
      ],
      [
        "पुढ",
        "े"
      ],
      [
        "अ",
        "र्"
      ],
      [
        "न्या",
        "या"
      ],
      [
        "प्रत",
        "्ये"
      ],
      [
        "घे",
        "ऊन"
      ],
      [
        "व्य",
        "क्ती"
      ],
      [
        "माग",
        "णी"
      ],
      [
        "बा",
        "ब"
      ],
      [
        "मु",
        "ला"
      ],
      [
        "क",
        "ॅ"
      ],
      [
        "ब",
        "ॉ"
      ],
      [
        "ठा",
        "करे"
      ],
      [
        "ंत",
        "ु"
      ],
      [
        "ले",
        "ला"
      ],
      [
        "र",
        "ण"
      ],
      [
        "१",
        "९"
      ],
      [
        "बा",
        "हेर"
      ],
      [
        "पर",
        "ी"
      ],
      [
        "म",
        "ं"
      ],
      [
        "का",
        "ळी"
      ],
      [
        "या",
        "वेळी"
      ],
      [
        "मंत",
        "्र"
      ],
      [
        "पा",
        "णी"
      ],
      [
        "धा",
        "न"
      ],
      [
        "सर्",
        "वा"
      ],
      [
        "तु",
        "म"
      ],
      [
        "क्र",
        "ि"
      ],
      [
        "कार",
        "ा"
      ],
      [
        "होत",
        "ं"
      ],
      [
        "द्",
        "दल"
      ],
      [
        "मृत्य",
        "ू"
      ],
      [
        "अध",
        "्य"
      ],
      [
        "आ",
        "व"
      ],
      [
        "आ",
        "यु"
      ],
      [
        "श्य",
        "क"
      ],
      [
        "त्या",
        "ने"
      ],
      [
        "वर्ष",
        "ी"
      ],
      [
        "ब",
        "्र"
      ],
      [
        "प",
        "क्ष"
      ],
      [
        "प्र",
        "कर"
      ],
      [
        "लया",
        "त"
      ],
      [
        "म",
        "ित"
      ],
      [
        "अ",
        "ॅ"
      ],
      [
        "वर",
        "ून"
      ],
      [
        "अ",
        "व"
      ],
      [
        "ल्या",
        "ने"
      ],
      [
        "वि",
        "श्"
      ],
      [
        "इ",
        "तर"
      ],
      [
        "जा",
        "स्त"
      ],
      [
        "निर्",
        "माण"
      ],
      [
        "प",
        "क्षा"
      ],
      [
        "म्हा",
        "ला"
      ],
      [
        "क्",
        "स"
      ],
      [
        "प्र",
        "मा"
      ],
      [
        "वर",
        "ील"
      ],
      [
        "वा",
        "न"
      ],
      [
        "नि",
        "य"
      ],
      [
        "नाही",
        "त"
      ],
      [
        "मि",
        "ती"
      ],
      [
        "ज्ञ",
        "ा"
      ],
      [
        "पर",
        "ंतु"
      ],
      [
        "ध",
        "ो"
      ],
      [
        "रा",
        "ष्ट"
      ],
      [
        "विद्या",
        "र्थ"
      ],
      [
        "व",
        "ं"
      ],
      [
        "ते",
        "व्हा"
      ],
      [
        "खा",
        "ली"
      ],
      [
        "ण्या",
        "चे"
      ],
      [
        "अ",
        "ंत"
      ],
      [
        "कर्",
        "म"
      ],
      [
        "इ",
        "त"
      ],
      [
        "कर",
        "ू"
      ],
      [
        "ट",
        "ु"
      ],
      [
        "प्रश्",
        "न"
      ],
      [
        "ठिका",
        "णी"
      ],
      [
        "रुप",
        "ये"
      ],
      [
        "फ",
        "ु"
      ],
      [
        "द्",
        "धा"
      ],
      [
        "जात",
        "े"
      ],
      [
        "ने",
        "ते"
      ],
      [
        "क्र",
        "म"
      ],
      [
        "ले",
        "ली"
      ],
      [
        "टक्",
        "के"
      ],
      [
        "कंप",
        "नी"
      ],
      [
        "के",
        "ंद्र"
      ],
      [
        "१",
        "०"
      ],
      [
        "प",
        "ती"
      ],
      [
        "या",
        "ंचा"
      ],
      [
        "ह",
        "ार"
      ],
      [
        "ब",
        "ँ"
      ],
      [
        "पा",
        "व"
      ],
      [
        "सो",
        "ड"
      ],
      [
        "का",
        "ं"
      ],
      [
        "घेत",
        "ला"
      ],
      [
        "व्",
        "हे"
      ],
      [
        "पा",
        "च"
      ],
      [
        "भा",
        "ष"
      ],
      [
        "सु",
        "र"
      ],
      [
        "आ",
        "धी"
      ],
      [
        "वे",
        "ळ"
      ],
      [
        "माझ",
        "्या"
      ],
      [
        "कर",
        "णे"
      ],
      [
        "न्",
        "न"
      ],
      [
        "आरो",
        "ग"
      ],
      [
        "के",
        "ट"
      ],
      [
        "ख",
        "ो"
      ],
      [
        "हो",
        "ईल"
      ],
      [
        "मान",
        "्य"
      ],
      [
        "उत्",
        "तर"
      ],
      [
        "ख",
        "ूप"
      ],
      [
        "क",
        "धी"
      ],
      [
        "क्र",
        "मा"
      ],
      [
        "ज",
        "ू"
      ],
      [
        "अध्य",
        "क्ष"
      ],
      [
        "व्य",
        "क्त"
      ],
      [
        "राष्ट्र",
        "वादी"
      ],
      [
        "मोठ",
        "्या"
      ],
      [
        "सं",
        "ख्या"
      ],
      [
        "ंत",
        "्र"
      ],
      [
        "ब",
        "द्दल"
      ],
      [
        "तु",
        "म्ही"
      ],
      [
        "चर्",
        "चा"
      ],
      [
        "भू",
        "मि"
      ],
      [
        "न",
        "व्ह"
      ],
      [
        "य",
        "र"
      ],
      [
        "दा",
        "न"
      ],
      [
        "शे",
        "ष"
      ],
      [
        "दु",
        "र्"
      ],
      [
        "पु",
        "णे"
      ],
      [
        "वि",
        "विध"
      ],
      [
        "क",
        "ला"
      ],
      [
        "शो",
        "ध"
      ],
      [
        "प",
        "दा"
      ],
      [
        "रो",
        "जी"
      ],
      [
        "कर",
        "ता"
      ],
      [
        "द",
        "ारा"
      ],
      [
        "श",
        "ल"
      ],
      [
        "अ",
        "ड"
      ],
      [
        "प",
        "वार"
      ],
      [
        "सुरु",
        "वात"
      ],
      [
        "या",
        "ची"
      ],
      [
        "ण्या",
        "स"
      ],
      [
        "च्",
        "च"
      ],
      [
        "के",
        "ंद"
      ],
      [
        "ब",
        "दल"
      ],
      [
        "शास",
        "ना"
      ],
      [
        "रो",
        "बर"
      ],
      [
        "ण",
        "ं"
      ],
      [
        "विका",
        "स"
      ],
      [
        "स्था",
        "प"
      ],
      [
        "प्र",
        "ि"
      ],
      [
        "बा",
        "द"
      ],
      [
        "्ट",
        "ी"
      ],
      [
        "ब",
        "ै"
      ],
      [
        "आव",
        "श्यक"
      ],
      [
        "के",
        "त"
      ],
      [
        "रा",
        "म"
      ],
      [
        "ख",
        "ात"
      ],
      [
        "मह",
        "त्"
      ],
      [
        "स्थ",
        "ित"
      ],
      [
        "जा",
        "णार"
      ],
      [
        "पोलिसा",
        "ंनी"
      ],
      [
        "या",
        "चा"
      ],
      [
        "काळ",
        "ात"
      ],
      [
        "ढ",
        "ा"
      ],
      [
        "मद",
        "त"
      ],
      [
        "क",
        "ऱ्या"
      ],
      [
        "ं",
        "बा"
      ],
      [
        "क",
        "ल"
      ],
      [
        "अस",
        "तात"
      ],
      [
        "ं",
        "धी"
      ],
      [
        "ता",
        "लु"
      ],
      [
        "न",
        "ला"
      ],
      [
        "मा",
        "ध्य"
      ],
      [
        "ख",
        "ु"
      ],
      [
        "ग",
        "ृ"
      ],
      [
        "सरकार",
        "ने"
      ],
      [
        "दे",
        "त"
      ],
      [
        "मध",
        "ून"
      ],
      [
        "श",
        "िक"
      ],
      [
        "प",
        "ंत"
      ],
      [
        "घ",
        "र"
      ],
      [
        "वि",
        "शेष"
      ],
      [
        "सं",
        "बंध"
      ],
      [
        "त्या",
        "च"
      ],
      [
        "वा",
        "ज"
      ],
      [
        "फ",
        "ार"
      ],
      [
        "या",
        "ंचे"
      ],
      [
        "नाग",
        "रि"
      ],
      [
        "र्",
        "स"
      ],
      [
        "दर्",
        "श"
      ],
      [
        "य",
        "न"
      ],
      [
        "त्या",
        "ंची"
      ],
      [
        "म",
        "ग"
      ],
      [
        "राष्ट",
        "्रीय"
      ],
      [
        "ब",
        "ल"
      ],
      [
        "असल्या",
        "ने"
      ],
      [
        "0",
        "0"
      ],
      [
        "ग",
        "ड"
      ],
      [
        "प्रमा",
        "णे"
      ],
      [
        "घेत",
        "ली"
      ],
      [
        "का",
        "मा"
      ],
      [
        "कु",
        "टु"
      ],
      [
        "बा",
        "ंध"
      ],
      [
        "स",
        "हा"
      ],
      [
        "्य",
        "ु"
      ],
      [
        "स्",
        "पर्"
      ],
      [
        "वि",
        "भागा"
      ],
      [
        "कड",
        "ा"
      ],
      [
        "राज",
        "्या"
      ],
      [
        "रा",
        "व"
      ],
      [
        "नु",
        "क"
      ],
      [
        "पहि",
        "ल्या"
      ],
      [
        "रात",
        "ील"
      ],
      [
        "ख",
        "रे"
      ],
      [
        "ंड",
        "े"
      ],
      [
        "ती",
        "त"
      ],
      [
        "त्या",
        "चा"
      ],
      [
        "गे",
        "ले"
      ],
      [
        "नवी",
        "न"
      ],
      [
        "का",
        "ंच्या"
      ],
      [
        "या",
        "साठी"
      ],
      [
        "महा",
        "पालि"
      ],
      [
        "र",
        "्या"
      ],
      [
        "ल",
        "व"
      ],
      [
        "के",
        "लेल्या"
      ],
      [
        "क",
        "म"
      ],
      [
        "पार",
        "्"
      ],
      [
        "खे",
        "ळ"
      ],
      [
        "शि",
        "वाय"
      ],
      [
        "अ",
        "ति"
      ],
      [
        "देश",
        "ात"
      ],
      [
        "इ",
        "ंड"
      ],
      [
        "न्",
        "ही"
      ],
      [
        "क",
        "शी"
      ],
      [
        "प्रत्ये",
        "क"
      ],
      [
        "के",
        "वळ"
      ],
      [
        "क्ष",
        "क"
      ],
      [
        "श",
        "्र"
      ],
      [
        "य",
        "श"
      ],
      [
        "कार",
        "वाई"
      ],
      [
        "मा",
        "ल"
      ],
      [
        "न",
        "ंद"
      ],
      [
        "र",
        "स्"
      ],
      [
        "पा",
        "द"
      ],
      [
        "ही",
        "र"
      ],
      [
        "भ",
        "व"
      ],
      [
        "करण्या",
        "ची"
      ],
      [
        "ण्या",
        "च्या"
      ],
      [
        "रुग्",
        "ण"
      ],
      [
        "चित्र",
        "पट"
      ],
      [
        "त",
        "पास"
      ],
      [
        "नो",
        "ंद"
      ],
      [
        "ख",
        "र"
      ],
      [
        "पंत",
        "प्र"
      ],
      [
        "हो",
        "ऊ"
      ],
      [
        "ड",
        "्या"
      ],
      [
        "हो",
        "तो"
      ],
      [
        "मार्",
        "ग"
      ],
      [
        "का",
        "ल"
      ],
      [
        "ति",
        "च्या"
      ],
      [
        "बै",
        "ठ"
      ],
      [
        "ं",
        "चं"
      ],
      [
        "अस",
        "तो"
      ],
      [
        "आ",
        "ंद"
      ],
      [
        "ब",
        "रोबर"
      ],
      [
        "र्",
        "ट"
      ],
      [
        "निवडण",
        "ुकी"
      ],
      [
        "सं",
        "घा"
      ],
      [
        "कार",
        "्या"
      ],
      [
        "भार",
        "तात"
      ],
      [
        "त",
        "ून"
      ],
      [
        "वा",
        "च"
      ],
      [
        "पा",
        "य"
      ],
      [
        "ह",
        "ॉ"
      ],
      [
        "अ",
        "मे"
      ],
      [
        "ब्",
        "ध"
      ],
      [
        "ष्",
        "ठ"
      ],
      [
        "राज",
        "्यात"
      ],
      [
        "आरोग",
        "्य"
      ],
      [
        "उ",
        "मे"
      ],
      [
        "प",
        "द"
      ],
      [
        "भ",
        "ो"
      ],
      [
        "व",
        "ला"
      ],
      [
        "च",
        "ो"
      ],
      [
        "शि",
        "क्षण"
      ],
      [
        "सा",
        "ध"
      ],
      [
        "ल्",
        "ला"
      ],
      [
        "आंद",
        "ोल"
      ],
      [
        "थ",
        "ो"
      ],
      [
        "उप",
        "ल"
      ],
      [
        "ल्",
        "वे"
      ],
      [
        "व",
        "ू"
      ],
      [
        "कल्",
        "प"
      ],
      [
        "यंत",
        "्र"
      ],
      [
        "परि",
        "स्थिती"
      ],
      [
        "रे",
        "ल्वे"
      ],
      [
        "दर्",
        "भ"
      ],
      [
        "उपल",
        "ब्ध"
      ],
      [
        "विरोध",
        "ात"
      ],
      [
        "शेत",
        "कऱ्या"
      ],
      [
        "भे",
        "ट"
      ],
      [
        "कर",
        "ो"
      ],
      [
        "क्षे",
        "त्र"
      ],
      [
        "शक्य",
        "ता"
      ],
      [
        "फो",
        "टो"
      ],
      [
        "ह",
        "र"
      ],
      [
        "ू",
        "ण"
      ],
      [
        "म",
        "ॅ"
      ],
      [
        "स्था",
        "न"
      ],
      [
        "स्प",
        "ष्ट"
      ],
      [
        "ले",
        "ख"
      ],
      [
        "आरो",
        "प"
      ],
      [
        "स्",
        "त्र"
      ],
      [
        "घा",
        "ल"
      ],
      [
        "या",
        "मुळे"
      ],
      [
        "परि",
        "ष"
      ],
      [
        "र",
        "ंग"
      ],
      [
        "ल्या",
        "नंतर"
      ],
      [
        "तर",
        "ु"
      ],
      [
        "स्थ",
        "े"
      ],
      [
        "टा",
        "क"
      ],
      [
        "त्या",
        "वर"
      ],
      [
        "मा",
        "जी"
      ],
      [
        "स",
        "द"
      ],
      [
        "म",
        "क"
      ],
      [
        "ड",
        "ू"
      ],
      [
        "मरा",
        "ठी"
      ],
      [
        "कोण",
        "त्या"
      ],
      [
        "उप",
        "स्थित"
      ],
      [
        "फ",
        "क्त"
      ],
      [
        "नि",
        "धी"
      ],
      [
        "फो",
        "न"
      ],
      [
        "प्",
        "त"
      ],
      [
        "पाहि",
        "जे"
      ],
      [
        "जा",
        "हीर"
      ],
      [
        "्",
        "थ"
      ],
      [
        "ह",
        "्या"
      ],
      [
        "ये",
        "ईल"
      ],
      [
        "य",
        "चे"
      ],
      [
        "त्या",
        "ंचे"
      ],
      [
        "सि",
        "द्ध"
      ],
      [
        "अध",
        "िकारी"
      ],
      [
        "शिवसे",
        "ने"
      ],
      [
        "जा",
        "गा"
      ],
      [
        "त्या",
        "ची"
      ],
      [
        "ध",
        "ु"
      ],
      [
        "ंड",
        "ा"
      ],
      [
        "उमे",
        "द"
      ],
      [
        "रा",
        "हि"
      ],
      [
        "दो",
        "न्ही"
      ],
      [
        "ळ",
        "ून"
      ],
      [
        "आ",
        "ई"
      ],
      [
        "जी",
        "व"
      ],
      [
        "सि",
        "ने"
      ],
      [
        "ब",
        "ॅ"
      ],
      [
        "रात",
        "्री"
      ],
      [
        "भाग",
        "ात"
      ],
      [
        "पाव",
        "सा"
      ],
      [
        "व्",
        "ही"
      ],
      [
        "1",
        "9"
      ],
      [
        "णार",
        "े"
      ],
      [
        "०",
        "०"
      ],
      [
        "कर",
        "ताना"
      ],
      [
        "ए",
        "न"
      ],
      [
        "परि",
        "सर"
      ],
      [
        "प",
        "रा"
      ],
      [
        "आम",
        "दार"
      ],
      [
        "ं",
        "पासून"
      ],
      [
        "क",
        "ट"
      ],
      [
        "वा",
        "चा"
      ],
      [
        "आ",
        "लं"
      ],
      [
        "व",
        "ारा"
      ],
      [
        "मु",
        "ली"
      ],
      [
        "से",
        "वा"
      ],
      [
        "त",
        "ू"
      ],
      [
        "स्",
        "वी"
      ],
      [
        "ग",
        "ार"
      ],
      [
        "गो",
        "ष्टी"
      ],
      [
        "हि",
        "ंद"
      ],
      [
        "घट",
        "ने"
      ],
      [
        "आ",
        "घा"
      ],
      [
        "पा",
        "कि"
      ],
      [
        "मध",
        "्य"
      ],
      [
        "महि",
        "न्या"
      ],
      [
        "अ",
        "ं"
      ],
      [
        "करण्या",
        "चा"
      ],
      [
        "क",
        "ळ"
      ],
      [
        "म्हट",
        "ले"
      ],
      [
        "आ",
        "र्थ"
      ],
      [
        "घो",
        "ष"
      ],
      [
        "योग",
        "्य"
      ],
      [
        "योज",
        "ना"
      ],
      [
        "तु",
        "म्हाला"
      ],
      [
        "पंतप्र",
        "धान"
      ],
      [
        "ल",
        "ग्"
      ],
      [
        "त्",
        "ती"
      ],
      [
        "सो",
        "शल"
      ],
      [
        "च",
        "ारा"
      ],
      [
        "सं",
        "घ"
      ],
      [
        "सं",
        "प"
      ],
      [
        "्या",
        "ंना"
      ],
      [
        "स",
        "मिती"
      ],
      [
        "मो",
        "ठा"
      ],
      [
        "ट",
        "का"
      ],
      [
        "वार",
        "े"
      ],
      [
        "आघा",
        "डी"
      ],
      [
        "फा",
        "य"
      ],
      [
        "या",
        "बाबत"
      ],
      [
        "दे",
        "व"
      ],
      [
        "श",
        "त"
      ],
      [
        "सा",
        "हे"
      ],
      [
        "न्य",
        "ू"
      ],
      [
        "ग",
        "ं"
      ],
      [
        "ग",
        "र्"
      ],
      [
        "द",
        "ृ"
      ],
      [
        "प",
        "द्ध"
      ],
      [
        "आर्थ",
        "िक"
      ],
      [
        "ं",
        "ह"
      ],
      [
        "स",
        "भा"
      ],
      [
        "परि",
        "णा"
      ],
      [
        "इ",
        "न"
      ],
      [
        "सु",
        "द्धा"
      ],
      [
        "बा",
        "जार"
      ],
      [
        "अ",
        "भ"
      ],
      [
        "वि",
        "जय"
      ],
      [
        "प्रमाण",
        "ात"
      ],
      [
        "महत्",
        "त्वा"
      ],
      [
        "क्",
        "का"
      ],
      [
        "कि",
        "ती"
      ],
      [
        "र्",
        "म"
      ],
      [
        "सि",
        "ंग"
      ],
      [
        "ए",
        "खा"
      ],
      [
        "आपल्या",
        "ला"
      ],
      [
        "स्",
        "वा"
      ],
      [
        "न",
        "व"
      ],
      [
        "राज",
        "्यातील"
      ],
      [
        "कर",
        "ुन"
      ],
      [
        "गा",
        "ंधी"
      ],
      [
        "जा",
        "ण"
      ],
      [
        "न",
        "ये"
      ],
      [
        "शक",
        "ते"
      ],
      [
        "सं",
        "दर्भ"
      ],
      [
        "सर्व",
        "ात"
      ],
      [
        "राज",
        "कीय"
      ],
      [
        "एक",
        "ूण"
      ],
      [
        "ग्रा",
        "म"
      ],
      [
        "आण",
        "खी"
      ],
      [
        "आरो",
        "पी"
      ],
      [
        "ओ",
        "ळ"
      ],
      [
        "भार",
        "त"
      ],
      [
        "ना",
        "थ"
      ],
      [
        "भूमि",
        "का"
      ],
      [
        "ात",
        "ून"
      ],
      [
        "प्रकर",
        "णी"
      ],
      [
        "आ",
        "लेल्या"
      ],
      [
        "ंड",
        "ी"
      ],
      [
        "ना",
        "च्या"
      ],
      [
        "फ",
        "ड"
      ],
      [
        "क्",
        "ट"
      ],
      [
        "कर",
        "तात"
      ],
      [
        "हा",
        "न"
      ],
      [
        "त्या",
        "ंचा"
      ],
      [
        "ज",
        "णा"
      ],
      [
        "प्र",
        "मुख"
      ],
      [
        "आ",
        "ढ"
      ],
      [
        "घ",
        "रा"
      ],
      [
        "ब",
        "हु"
      ],
      [
        "भू",
        "मी"
      ],
      [
        "प",
        "णा"
      ],
      [
        "1",
        "0"
      ],
      [
        "ता",
        "प"
      ],
      [
        "घ",
        "री"
      ],
      [
        "स्ता",
        "न"
      ],
      [
        "ई",
        "न"
      ],
      [
        "त",
        "क्र"
      ],
      [
        "सं",
        "पूर्ण"
      ],
      [
        "आ",
        "त्"
      ],
      [
        "१",
        "५"
      ],
      [
        "स्ट",
        "े"
      ],
      [
        "मी",
        "डि"
      ],
      [
        "म",
        "ै"
      ],
      [
        "वाह",
        "न"
      ],
      [
        "बा",
        "जू"
      ],
      [
        "सं",
        "स्था"
      ],
      [
        "ना",
        "वा"
      ],
      [
        "या",
        "च्या"
      ],
      [
        "शक",
        "तो"
      ],
      [
        "झ",
        "ो"
      ],
      [
        "दार",
        "ी"
      ],
      [
        "्",
        "ड"
      ],
      [
        "वे",
        "त"
      ],
      [
        "खे",
        "ळा"
      ],
      [
        "ए",
        "ल"
      ],
      [
        "करी",
        "त"
      ],
      [
        "ु",
        "ल"
      ],
      [
        "अमे",
        "रि"
      ],
      [
        "ग",
        "ण"
      ],
      [
        "तालु",
        "क"
      ],
      [
        "ऑ",
        "क्"
      ],
      [
        "फ",
        "ी"
      ],
      [
        "च",
        "ना"
      ],
      [
        "उ",
        "द्ध"
      ],
      [
        "अ",
        "टक"
      ],
      [
        "व",
        "ढ"
      ],
      [
        "फ",
        "र"
      ],
      [
        "ं",
        "ज"
      ],
      [
        "स्",
        "क"
      ],
      [
        "स",
        "्या"
      ],
      [
        "पर",
        "त"
      ],
      [
        "तुम",
        "च्या"
      ],
      [
        "दिव",
        "शी"
      ],
      [
        "श",
        "र"
      ],
      [
        "मा",
        "ंड"
      ],
      [
        "पर",
        "्या"
      ],
      [
        "द्य",
        "ो"
      ],
      [
        "न्याया",
        "लया"
      ],
      [
        "प्र",
        "वा"
      ],
      [
        "िका",
        "ऱ्या"
      ],
      [
        "लव",
        "कर"
      ],
      [
        "ख",
        "र्"
      ],
      [
        "ज",
        "ित"
      ],
      [
        "का",
        "श"
      ],
      [
        "ल",
        "ॅ"
      ],
      [
        "छ",
        "ा"
      ],
      [
        "मं",
        "दि"
      ],
      [
        "क्ष",
        "ित"
      ],
      [
        "द",
        "्र"
      ],
      [
        "दिस",
        "त"
      ],
      [
        "कर",
        "णाऱ्या"
      ],
      [
        "स",
        "न"
      ],
      [
        "व",
        "क"
      ],
      [
        "झ",
        "े"
      ],
      [
        "ध",
        "र"
      ],
      [
        "शा",
        "ंत"
      ],
      [
        "मा",
        "गे"
      ],
      [
        "ल",
        "सी"
      ],
      [
        "स्वत",
        "ः"
      ],
      [
        "च",
        "णी"
      ],
      [
        "द",
        "ला"
      ],
      [
        "प",
        "ॉ"
      ],
      [
        "स",
        "काळी"
      ],
      [
        "एक",
        "दा"
      ],
      [
        "त्या",
        "चे"
      ],
      [
        "ज",
        "ण"
      ],
      [
        "ं",
        "का"
      ],
      [
        "लक्ष",
        "ात"
      ],
      [
        "कुटु",
        "ंब"
      ],
      [
        "प",
        "ं"
      ],
      [
        "ति",
        "ला"
      ],
      [
        "्",
        "व"
      ],
      [
        "पो",
        "हो"
      ],
      [
        "टे",
        "ल"
      ],
      [
        "स",
        "चि"
      ],
      [
        "मो",
        "ठी"
      ],
      [
        "ट",
        "्या"
      ],
      [
        "क",
        "ौ"
      ],
      [
        "विधा",
        "नस"
      ],
      [
        "ओळ",
        "ख"
      ],
      [
        "ने",
        "ह"
      ],
      [
        "इ",
        "ंग"
      ],
      [
        "प",
        "टा"
      ],
      [
        "क्ष",
        "णा"
      ],
      [
        "वी",
        "स"
      ],
      [
        "जात",
        "ो"
      ],
      [
        "न",
        "व्या"
      ],
      [
        "व",
        "ण्यात"
      ],
      [
        "ना",
        "वर"
      ],
      [
        "श",
        "ब्"
      ],
      [
        "द्",
        "वारे"
      ],
      [
        "श्",
        "व"
      ],
      [
        "ध्य",
        "क्ष"
      ],
      [
        "गे",
        "ली"
      ],
      [
        "घ",
        "रात"
      ],
      [
        "मंत्र",
        "्या"
      ],
      [
        "म",
        "ंग"
      ],
      [
        "कु",
        "मार"
      ],
      [
        "ं",
        "कडून"
      ],
      [
        "कार्य",
        "कर्"
      ],
      [
        "या",
        "च"
      ],
      [
        "दुस",
        "ऱ्या"
      ],
      [
        "नस",
        "ल्या"
      ],
      [
        "णार",
        "ा"
      ],
      [
        "गर",
        "ज"
      ],
      [
        "अस",
        "ता"
      ],
      [
        "क्रि",
        "केट"
      ],
      [
        "भा",
        "गी"
      ],
      [
        "ना",
        "चा"
      ],
      [
        "ल",
        "ढ"
      ],
      [
        "सि",
        "ंह"
      ],
      [
        "चौ",
        "कशी"
      ],
      [
        "खरे",
        "दी"
      ],
      [
        "के",
        "च्या"
      ],
      [
        "अभ",
        "्या"
      ],
      [
        "मु",
        "द्"
      ],
      [
        "प्र",
        "वेश"
      ],
      [
        "ष",
        "ी"
      ],
      [
        "खा",
        "न"
      ],
      [
        "ब",
        "ात"
      ],
      [
        "मि",
        "क"
      ],
      [
        "समा",
        "वेश"
      ],
      [
        "उद्ध",
        "व"
      ],
      [
        "ल्",
        "ड"
      ],
      [
        "गे",
        "ला"
      ],
      [
        "र",
        "ंगा"
      ],
      [
        "आ",
        "नंद"
      ],
      [
        "ळ",
        "्यात"
      ],
      [
        "कृ",
        "ती"
      ],
      [
        "ि",
        "ता"
      ],
      [
        "मा",
        "लि"
      ],
      [
        "ं",
        "दे"
      ],
      [
        "मु",
        "ल"
      ],
      [
        "१",
        "२"
      ],
      [
        "व्हा",
        "यर"
      ],
      [
        "मात",
        "ून"
      ],
      [
        "य",
        "ची"
      ],
      [
        "्य",
        "ू"
      ],
      [
        "प्र",
        "करण"
      ],
      [
        "श",
        "य"
      ],
      [
        "र्",
        "गत"
      ],
      [
        "असल्या",
        "ची"
      ],
      [
        "आप",
        "ले"
      ],
      [
        "झा",
        "लं"
      ],
      [
        "ज",
        "िक"
      ],
      [
        "भ",
        "ु"
      ],
      [
        "मत",
        "दार"
      ],
      [
        "म",
        "ल"
      ],
      [
        "कर",
        "णा"
      ],
      [
        "ज",
        "बाब"
      ],
      [
        "प",
        "ॅ"
      ],
      [
        "हो",
        "त्या"
      ],
      [
        "व",
        "य"
      ],
      [
        "वर",
        "ण"
      ],
      [
        "ट्",
        "स"
      ],
      [
        "द",
        "ूर"
      ],
      [
        "निवडण",
        "ूक"
      ],
      [
        "पोहो",
        "च"
      ],
      [
        "का",
        "त"
      ],
      [
        "उत्",
        "पाद"
      ],
      [
        "ऑ",
        "नला"
      ],
      [
        "आप",
        "ली"
      ],
      [
        "गु",
        "न्हा"
      ],
      [
        "ष",
        "ा"
      ],
      [
        "भ",
        "रात"
      ],
      [
        "रे",
        "ंद्र"
      ],
      [
        "ची",
        "न"
      ],
      [
        "या",
        "मध्ये"
      ],
      [
        "वि",
        "रु"
      ],
      [
        "र्",
        "ड"
      ],
      [
        "ज",
        "न्"
      ],
      [
        "ं",
        "शी"
      ],
      [
        "धा",
        "वा"
      ],
      [
        "णार",
        "ी"
      ],
      [
        "ह",
        "ून"
      ],
      [
        "च",
        "ल"
      ],
      [
        "पा",
        "ऊ"
      ],
      [
        "न",
        "ारा"
      ],
      [
        "गि",
        "री"
      ],
      [
        "स",
        "ै"
      ],
      [
        "ध",
        "े"
      ],
      [
        "परिणा",
        "म"
      ],
      [
        "ल",
        "हान"
      ],
      [
        "अ",
        "ग"
      ],
      [
        "ल",
        "य"
      ],
      [
        "a",
        "n"
      ],
      [
        "शेत",
        "करी"
      ],
      [
        "य़",
        "ा"
      ],
      [
        "स",
        "िक"
      ],
      [
        "पोलि",
        "स"
      ],
      [
        "प",
        "त्"
      ],
      [
        "शा",
        "ळा"
      ],
      [
        "गु",
        "न्"
      ],
      [
        "ठ",
        "ो"
      ],
      [
        "आ",
        "धार"
      ],
      [
        "फड",
        "ण"
      ],
      [
        "म्हट",
        "लं"
      ],
      [
        "साहे",
        "ब"
      ],
      [
        "देश",
        "ातील"
      ],
      [
        "उ",
        "घड"
      ],
      [
        "सं",
        "जय"
      ],
      [
        "राज",
        "े"
      ],
      [
        "ध",
        "िक"
      ],
      [
        "स",
        "त्ता"
      ],
      [
        "च",
        "ंद्र"
      ],
      [
        "जिल्ह",
        "्यातील"
      ],
      [
        "शिवसे",
        "ना"
      ],
      [
        "ं",
        "ती"
      ],
      [
        "अ",
        "न"
      ],
      [
        "म",
        "ता"
      ],
      [
        "प",
        "्ट"
      ],
      [
        "लाग",
        "ले"
      ],
      [
        "1",
        "5"
      ],
      [
        "अ",
        "न्य"
      ],
      [
        "डि",
        "ओ"
      ],
      [
        "शे",
        "व"
      ],
      [
        "ष",
        "ण"
      ],
      [
        "वृ",
        "त्त"
      ],
      [
        "द",
        "ू"
      ],
      [
        "अ",
        "जून"
      ],
      [
        "या",
        "ला"
      ],
      [
        "पै",
        "की"
      ],
      [
        "ब",
        "ळ"
      ],
      [
        "लॉ",
        "कडा"
      ],
      [
        "प",
        "थ"
      ],
      [
        "चित्र",
        "पटा"
      ],
      [
        "सम",
        "ज"
      ],
      [
        "लो",
        "कांना"
      ],
      [
        "पा",
        "हा"
      ],
      [
        "ट्",
        "वि"
      ],
      [
        "सा",
        "न"
      ],
      [
        "ब",
        "घ"
      ],
      [
        "यु",
        "क्त"
      ],
      [
        "हि",
        "त"
      ],
      [
        "टी",
        "म"
      ],
      [
        "आम",
        "च्या"
      ],
      [
        "का",
        "ंची"
      ],
      [
        "विरु",
        "द्ध"
      ],
      [
        "कोणत्या",
        "ही"
      ],
      [
        "विष",
        "यी"
      ],
      [
        "करा",
        "वी"
      ],
      [
        "पै",
        "से"
      ],
      [
        "ख",
        "ड"
      ],
      [
        "प्र",
        "शासना"
      ],
      [
        "ात",
        "्"
      ],
      [
        "ध",
        "न"
      ],
      [
        "क्",
        "टर"
      ],
      [
        "१",
        "८"
      ],
      [
        "मंड",
        "ळा"
      ],
      [
        "जा",
        "ईल"
      ],
      [
        "दो",
        "घा"
      ],
      [
        "स",
        "ंत"
      ],
      [
        "टी",
        "का"
      ],
      [
        "वे",
        "ळा"
      ],
      [
        "मार्",
        "गा"
      ],
      [
        "ये",
        "ते"
      ],
      [
        "दि",
        "लेल्या"
      ],
      [
        "ना",
        "मा"
      ],
      [
        "असल्या",
        "चं"
      ],
      [
        "ग्रा",
        "ह"
      ],
      [
        "कर्म",
        "चा"
      ],
      [
        "करा",
        "वा"
      ],
      [
        "विश्",
        "वास"
      ],
      [
        "न",
        "रेंद्र"
      ],
      [
        "बंद",
        "ी"
      ],
      [
        "ह",
        "न"
      ],
      [
        "त",
        "िक"
      ],
      [
        "दे",
        "शी"
      ],
      [
        "दी",
        "प"
      ],
      [
        "करो",
        "ना"
      ],
      [
        "सा",
        "मा"
      ],
      [
        "ट",
        "ल"
      ],
      [
        "गे",
        "ल"
      ],
      [
        "पुढ",
        "ील"
      ],
      [
        "आप",
        "ला"
      ],
      [
        "संदर्भ",
        "ात"
      ],
      [
        "काय",
        "म"
      ],
      [
        "सो",
        "म"
      ],
      [
        "स",
        "रा"
      ],
      [
        "अग",
        "दी"
      ],
      [
        "माध्य",
        "मातून"
      ],
      [
        "सं",
        "धी"
      ],
      [
        "सांगित",
        "लं"
      ],
      [
        "घे",
        "ण्यात"
      ],
      [
        "दि",
        "वा"
      ],
      [
        "कर",
        "तो"
      ],
      [
        "उ",
        "द्यो"
      ],
      [
        "लि",
        "हि"
      ],
      [
        "क",
        "ं"
      ],
      [
        "य",
        "चा"
      ],
      [
        "ऑ",
        "फ"
      ],
      [
        "उ",
        "द्"
      ],
      [
        "का",
        "ला"
      ],
      [
        "शक",
        "तात"
      ],
      [
        "स",
        "ल"
      ],
      [
        "र्",
        "मा"
      ],
      [
        "घोष",
        "णा"
      ],
      [
        "सार",
        "ख्या"
      ],
      [
        "अ",
        "खे"
      ],
      [
        "ल",
        "ंदा"
      ],
      [
        "गं",
        "भी"
      ],
      [
        "म",
        "ती"
      ],
      [
        "मे",
        "ंट"
      ],
      [
        "रो",
        "ज"
      ],
      [
        "गंभी",
        "र"
      ],
      [
        "a",
        "r"
      ],
      [
        "पुर",
        "व"
      ],
      [
        "मुंबई",
        "त"
      ],
      [
        "संबंध",
        "ित"
      ],
      [
        "ल",
        "ै"
      ],
      [
        "पाकि",
        "स्तान"
      ],
      [
        "खास",
        "दार"
      ],
      [
        "स",
        "्य"
      ],
      [
        "जिल्ह",
        "्यात"
      ],
      [
        "मार",
        "े"
      ],
      [
        "नि",
        "ल"
      ],
      [
        "त्या",
        "साठी"
      ],
      [
        "शर",
        "द"
      ],
      [
        "विरो",
        "धी"
      ],
      [
        "शे",
        "अर"
      ],
      [
        "प्र",
        "ो"
      ],
      [
        "आठ",
        "वड"
      ],
      [
        "i",
        "n"
      ],
      [
        "जि",
        "ंक"
      ],
      [
        "दि",
        "ल्या"
      ],
      [
        "खर्",
        "च"
      ],
      [
        "या",
        "चे"
      ],
      [
        "गृ",
        "ह"
      ],
      [
        "कर्म",
        "चार"
      ],
      [
        "ष्",
        "ण"
      ],
      [
        "अर्",
        "ज"
      ],
      [
        "एक",
        "त्र"
      ],
      [
        "जात",
        "ात"
      ],
      [
        "ळ",
        "ू"
      ],
      [
        "राह",
        "ुल"
      ],
      [
        "व",
        "ॉ"
      ],
      [
        "स",
        "त"
      ],
      [
        "खेळा",
        "डू"
      ],
      [
        "जा",
        "ने"
      ],
      [
        "श",
        "री"
      ],
      [
        "सर्",
        "ग"
      ],
      [
        "नेह",
        "मी"
      ],
      [
        "र",
        "वि"
      ],
      [
        "वे",
        "द"
      ],
      [
        "घेत",
        "ले"
      ],
      [
        "प्",
        "प"
      ],
      [
        "१",
        "४"
      ],
      [
        "गु",
        "ंत"
      ],
      [
        "केंद",
        "्रीय"
      ],
      [
        "ं",
        "ता"
      ],
      [
        "उ",
        "च्च"
      ],
      [
        "ळ",
        "ं"
      ],
      [
        "जे",
        "व्हा"
      ],
      [
        "स्",
        "ती"
      ],
      [
        "ट",
        "न"
      ],
      [
        "आ",
        "यो"
      ],
      [
        "ंद",
        "र"
      ],
      [
        "1",
        "2"
      ],
      [
        "वा",
        "ल"
      ],
      [
        "ल",
        "स"
      ],
      [
        "द",
        "हा"
      ],
      [
        "प",
        "दार"
      ],
      [
        "ंट",
        "र"
      ],
      [
        "अध",
        "िकाऱ्या"
      ],
      [
        "बा",
        "ध"
      ],
      [
        "द्",
        "द"
      ],
      [
        "था",
        "ंब"
      ],
      [
        "य",
        "त"
      ],
      [
        "आ",
        "देश"
      ],
      [
        "ता",
        "च"
      ],
      [
        "कु",
        "ठ"
      ],
      [
        "फ",
        "ॉ"
      ],
      [
        "हो",
        "ऊन"
      ],
      [
        "आयु",
        "ष"
      ],
      [
        "गु",
        "रु"
      ],
      [
        "हा",
        "य"
      ],
      [
        "फडण",
        "वीस"
      ],
      [
        "जो",
        "र"
      ],
      [
        "ब",
        "ार"
      ],
      [
        "मिळ",
        "त"
      ],
      [
        "ला",
        "गेल"
      ],
      [
        "त्या",
        "वेळी"
      ],
      [
        "नि",
        "मि"
      ],
      [
        "च्छ",
        "ा"
      ],
      [
        "पार्",
        "श्व"
      ],
      [
        "झ",
        "ि"
      ],
      [
        "शक",
        "ता"
      ],
      [
        "अ",
        "हवा"
      ],
      [
        "मा",
        "ना"
      ],
      [
        "ध",
        "क्का"
      ],
      [
        "बैठ",
        "की"
      ],
      [
        "का",
        "ने"
      ],
      [
        "क्र",
        "िया"
      ],
      [
        "पो",
        "स्ट"
      ],
      [
        "आ",
        "वड"
      ],
      [
        "सर्व",
        "ो"
      ],
      [
        "वात",
        "ा"
      ],
      [
        "दर्",
        "शन"
      ],
      [
        "णा",
        "ला"
      ],
      [
        "प्र",
        "त्य"
      ],
      [
        "करण्या",
        "चे"
      ],
      [
        "वण",
        "ूक"
      ],
      [
        "लाग",
        "ली"
      ],
      [
        "कंप",
        "न्या"
      ],
      [
        "उप",
        "चार"
      ],
      [
        "प्र",
        "देश"
      ],
      [
        "सिने",
        "मा"
      ],
      [
        "o",
        "n"
      ],
      [
        "शह",
        "रा"
      ],
      [
        "ना",
        "शिक"
      ],
      [
        "वान",
        "गी"
      ],
      [
        "ग",
        "ै"
      ],
      [
        "तालुक",
        "्यातील"
      ],
      [
        "गा",
        "डी"
      ],
      [
        "सग",
        "ळ्या"
      ],
      [
        "पत्",
        "नी"
      ],
      [
        "ख",
        "ंड"
      ],
      [
        "मिळा",
        "ली"
      ],
      [
        "इंड",
        "िया"
      ],
      [
        "द",
        "म"
      ],
      [
        "च",
        "र"
      ],
      [
        "मार्",
        "च"
      ],
      [
        "ँ",
        "ड"
      ],
      [
        "पार",
        "ी"
      ],
      [
        "सा",
        "मान्य"
      ],
      [
        "विद्यार्थ",
        "्या"
      ],
      [
        "लाग",
        "ला"
      ],
      [
        "स",
        "व"
      ],
      [
        "प्र",
        "काश"
      ],
      [
        "से",
        "ल"
      ],
      [
        "फ",
        "्"
      ],
      [
        "ं",
        "पूर्वी"
      ],
      [
        "सा",
        "व"
      ],
      [
        "क्",
        "की"
      ],
      [
        "को",
        "णी"
      ],
      [
        "वा",
        "डी"
      ],
      [
        "दिस",
        "ून"
      ],
      [
        "कर्मचा",
        "ऱ्या"
      ],
      [
        "भूमी",
        "वर"
      ],
      [
        "स",
        "भे"
      ],
      [
        "श्",
        "वर"
      ],
      [
        "य",
        "ू"
      ],
      [
        "का",
        "ंत"
      ],
      [
        "र",
        "क्"
      ],
      [
        "महारा",
        "ष्ट"
      ],
      [
        "ब",
        "रे"
      ],
      [
        "या",
        "ने"
      ],
      [
        "प्र",
        "सिद्ध"
      ],
      [
        "ज",
        "रा"
      ],
      [
        "सा",
        "द"
      ],
      [
        "ौ",
        "र"
      ],
      [
        "स्",
        "वर"
      ],
      [
        "जा",
        "ऊ"
      ],
      [
        "आ",
        "होत"
      ],
      [
        "साम",
        "ना"
      ],
      [
        "इ",
        "ं"
      ],
      [
        "प्र",
        "थ"
      ],
      [
        "दा",
        "यक"
      ],
      [
        "कार",
        "ी"
      ],
      [
        "त",
        "म"
      ],
      [
        "ध",
        "िकारी"
      ],
      [
        "काळ",
        "जी"
      ],
      [
        "ल्",
        "स"
      ],
      [
        "कर्",
        "ज"
      ],
      [
        "भाज",
        "पा"
      ],
      [
        "जो",
        "ड"
      ],
      [
        "शह",
        "रात"
      ],
      [
        "ति",
        "ने"
      ],
      [
        "३",
        "०"
      ],
      [
        "अभ्या",
        "स"
      ],
      [
        "औ",
        "ष"
      ],
      [
        "ज",
        "ल"
      ],
      [
        "ति",
        "हा"
      ],
      [
        "ळे",
        "ल"
      ],
      [
        "पर",
        "वानगी"
      ],
      [
        "आता",
        "पर्यंत"
      ],
      [
        "रुग्णा",
        "लयात"
      ],
      [
        "क",
        "ण"
      ],
      [
        "माग",
        "ील"
      ],
      [
        "क",
        "ल्या"
      ],
      [
        "पी",
        "सी"
      ],
      [
        "ना",
        "ला"
      ],
      [
        "क्ष",
        "ि"
      ],
      [
        "बा",
        "ई"
      ],
      [
        "महाराष्ट",
        "्रा"
      ],
      [
        "लॉकडा",
        "ऊन"
      ],
      [
        "तक्र",
        "ार"
      ],
      [
        "करा",
        "वे"
      ],
      [
        "शा",
        "ळे"
      ],
      [
        "५",
        "०"
      ],
      [
        "बा",
        "बा"
      ],
      [
        "परिसर",
        "ात"
      ],
      [
        "सा",
        "हि"
      ],
      [
        "बा",
        "ळा"
      ],
      [
        "ल",
        "ंड"
      ],
      [
        "प",
        "ंचा"
      ],
      [
        "नि",
        "श्"
      ],
      [
        "रा",
        "वर"
      ],
      [
        "रि",
        "क्त"
      ],
      [
        "लाग",
        "ू"
      ],
      [
        "स",
        "ळ"
      ],
      [
        "न",
        "र"
      ],
      [
        "प्र",
        "वास"
      ],
      [
        "ग",
        "णे"
      ],
      [
        "ति",
        "थे"
      ],
      [
        "व",
        "ण्यासाठी"
      ],
      [
        "a",
        "t"
      ],
      [
        "पु",
        "स्त"
      ],
      [
        "१",
        "१"
      ],
      [
        "अखे",
        "र"
      ],
      [
        "स्त",
        "ू"
      ],
      [
        "त",
        "सं"
      ],
      [
        "जन",
        "ते"
      ],
      [
        "नुक",
        "सान"
      ],
      [
        "सामा",
        "जिक"
      ],
      [
        "दे",
        "ऊन"
      ],
      [
        "1",
        "8"
      ],
      [
        "्",
        "स"
      ],
      [
        "व",
        "णी"
      ],
      [
        "रा",
        "ब"
      ],
      [
        "ख",
        "ि"
      ],
      [
        "य",
        "चं"
      ],
      [
        "स्",
        "कार"
      ],
      [
        "स्पर्",
        "धे"
      ],
      [
        "मो",
        "बा"
      ],
      [
        "नेत",
        "्री"
      ],
      [
        "ल्या",
        "वर"
      ],
      [
        "उ",
        "ल्"
      ],
      [
        "अभि",
        "नेत्री"
      ],
      [
        "छ",
        "ो"
      ],
      [
        "आढ",
        "ळ"
      ],
      [
        "वे",
        "ळे"
      ],
      [
        "म्",
        "प"
      ],
      [
        "न",
        "का"
      ],
      [
        "आ",
        "वाहन"
      ],
      [
        "आंदोल",
        "न"
      ],
      [
        "ट",
        "्रे"
      ],
      [
        "थ",
        "ी"
      ],
      [
        "ए",
        "वढ"
      ],
      [
        "ना",
        "ची"
      ],
      [
        "अ",
        "त्य"
      ],
      [
        "न्या",
        "य"
      ],
      [
        "र्",
        "य"
      ],
      [
        "पूर्",
        "व"
      ],
      [
        "चांग",
        "ले"
      ],
      [
        "2",
        "1"
      ],
      [
        "करण्या",
        "स"
      ],
      [
        "न",
        "्यात"
      ],
      [
        "मो",
        "ठे"
      ],
      [
        "दुस",
        "री"
      ],
      [
        "विक",
        "्री"
      ],
      [
        "च",
        "ु"
      ],
      [
        "सा",
        "ई"
      ],
      [
        "कर",
        "ते"
      ],
      [
        "म",
        "ॉ"
      ],
      [
        "सं",
        "गी"
      ],
      [
        "वर्ष",
        "े"
      ],
      [
        "ला",
        "च"
      ],
      [
        "प्रि",
        "य"
      ],
      [
        "त",
        "त्"
      ],
      [
        "ब",
        "जा"
      ],
      [
        "ं",
        "मुळे"
      ],
      [
        "ि",
        "म"
      ],
      [
        "पु",
        "रा"
      ],
      [
        "o",
        "r"
      ],
      [
        "य",
        "ंदा"
      ],
      [
        "क",
        "ू"
      ],
      [
        "सु",
        "मारे"
      ],
      [
        "ल",
        "र"
      ],
      [
        "अ",
        "जित"
      ],
      [
        "वै",
        "द्य"
      ],
      [
        "द",
        "ह"
      ],
      [
        "जा",
        "ऊन"
      ],
      [
        "थे",
        "ट"
      ],
      [
        "व्हि",
        "डिओ"
      ],
      [
        "1",
        "4"
      ],
      [
        "री",
        "त"
      ],
      [
        "ए",
        "फ"
      ],
      [
        "१",
        "६"
      ],
      [
        "मी",
        "र"
      ],
      [
        "e",
        "r"
      ],
      [
        "बा",
        "ल"
      ],
      [
        "डी",
        "ओ"
      ],
      [
        "वर्",
        "त"
      ],
      [
        "गुन्",
        "हे"
      ],
      [
        "ं",
        "कडे"
      ],
      [
        "वाढ",
        "त"
      ],
      [
        "समा",
        "ज"
      ],
      [
        "सा",
        "दर"
      ],
      [
        "पार्श्व",
        "भूमीवर"
      ],
      [
        "लग्",
        "न"
      ],
      [
        "वाह",
        "त"
      ],
      [
        "रो",
        "ख"
      ],
      [
        "विधानस",
        "भा"
      ],
      [
        "सु",
        "विधा"
      ],
      [
        "वे",
        "ंद्र"
      ],
      [
        "ने",
        "म"
      ],
      [
        "महाराष्ट्र",
        "ात"
      ],
      [
        "दि",
        "ग्"
      ],
      [
        "मीडि",
        "यावर"
      ],
      [
        "म",
        "ारा"
      ],
      [
        "स",
        "री"
      ],
      [
        "गु",
        "ण"
      ],
      [
        "चाल",
        "क"
      ],
      [
        "वेग",
        "वेग"
      ],
      [
        "त",
        "ब्"
      ],
      [
        "वि",
        "ड"
      ],
      [
        "झाल्या",
        "नंतर"
      ],
      [
        "न्यू",
        "ज"
      ],
      [
        "एखा",
        "द्या"
      ],
      [
        "परी",
        "क्षा"
      ],
      [
        "ने",
        "ट"
      ],
      [
        "गा",
        "वा"
      ],
      [
        "आ",
        "व्हा"
      ],
      [
        "म",
        "ज"
      ],
      [
        "दा",
        "वा"
      ],
      [
        "कर्मचार",
        "ी"
      ],
      [
        "सं",
        "ख"
      ],
      [
        "आ",
        "ंतर"
      ],
      [
        "प",
        "श्"
      ],
      [
        "ण",
        "ू"
      ],
      [
        "अध",
        "ि"
      ],
      [
        "कार",
        "णा"
      ],
      [
        "नि",
        "यंत्र"
      ],
      [
        "मृ",
        "त"
      ],
      [
        "रा",
        "ऊ"
      ],
      [
        "सं",
        "स्थे"
      ],
      [
        "केंद",
        "्रा"
      ],
      [
        "वि",
        "भाग"
      ],
      [
        "अ",
        "ंदा"
      ],
      [
        "्या",
        "ने"
      ],
      [
        "श",
        "ै"
      ],
      [
        "शह",
        "रातील"
      ],
      [
        "स्था",
        "निक"
      ],
      [
        "ध",
        "व"
      ],
      [
        "प्रत",
        "िक"
      ],
      [
        "सं",
        "पर्"
      ],
      [
        "वाता",
        "वरण"
      ],
      [
        "ज्ञा",
        "न"
      ],
      [
        "१",
        "७"
      ],
      [
        "वू",
        "ड"
      ],
      [
        "प्रथ",
        "म"
      ],
      [
        "मंग",
        "ळ"
      ],
      [
        "सू",
        "चना"
      ],
      [
        "अस",
        "तील"
      ],
      [
        "का",
        "ंचा"
      ],
      [
        "समा",
        "जा"
      ],
      [
        "अ",
        "ल"
      ],
      [
        "एक",
        "मे"
      ],
      [
        "त",
        "ार"
      ],
      [
        "म",
        "नो"
      ],
      [
        "कु",
        "ठे"
      ],
      [
        "मि",
        "ळेल"
      ],
      [
        "आ",
        "दी"
      ],
      [
        "सम",
        "स्या"
      ],
      [
        "अत्य",
        "ंत"
      ],
      [
        "ला",
        "ल"
      ],
      [
        "कि",
        "ंग"
      ],
      [
        "तु",
        "ल"
      ],
      [
        "ऑक्",
        "टो"
      ],
      [
        "ज",
        "ख"
      ],
      [
        "ग",
        "ट"
      ],
      [
        "द",
        "ौ"
      ],
      [
        "ं",
        "सह"
      ],
      [
        "म",
        "ते"
      ],
      [
        "अस",
        "लेले"
      ],
      [
        "कि",
        "लो"
      ],
      [
        "श",
        "ील"
      ],
      [
        "अ",
        "द्या"
      ],
      [
        "भू",
        "त"
      ],
      [
        "अंत",
        "र्गत"
      ],
      [
        "क",
        "प"
      ],
      [
        "्र",
        "ि"
      ],
      [
        "शक",
        "त"
      ],
      [
        "शब्",
        "द"
      ],
      [
        "पु",
        "रु"
      ],
      [
        "अध",
        "िकार"
      ],
      [
        "आयु",
        "क्त"
      ],
      [
        "उ",
        "तर"
      ],
      [
        "अप",
        "घात"
      ],
      [
        "तब्",
        "बल"
      ],
      [
        "पुरव",
        "ठा"
      ],
      [
        "सु",
        "धार"
      ],
      [
        "ए",
        "प्रि"
      ],
      [
        "गा",
        "वात"
      ],
      [
        "क्",
        "ता"
      ],
      [
        "इ",
        "न्"
      ],
      [
        "प्रति",
        "निधी"
      ],
      [
        "चांग",
        "ली"
      ],
      [
        "आत्",
        "मह"
      ],
      [
        "व्हि",
        "डीओ"
      ],
      [
        "मि",
        "नि"
      ],
      [
        "एप्रि",
        "ल"
      ],
      [
        "ब्र",
        "ि"
      ],
      [
        "ला",
        "य"
      ],
      [
        "विद्या",
        "पी"
      ],
      [
        "आ",
        "श्"
      ],
      [
        "दह",
        "शत"
      ],
      [
        "ज",
        "री"
      ],
      [
        "धार",
        "ण"
      ],
      [
        "रा",
        "णे"
      ],
      [
        "मी",
        "टर"
      ],
      [
        "निश्",
        "चित"
      ],
      [
        "3",
        "0"
      ],
      [
        "ता",
        "स"
      ],
      [
        "इ",
        "थे"
      ],
      [
        "श",
        "ं"
      ],
      [
        "सा",
        "पड"
      ],
      [
        "नो",
        "व्हे"
      ],
      [
        "महि",
        "न्यात"
      ],
      [
        "अद्या",
        "प"
      ],
      [
        "प",
        "हा"
      ],
      [
        "जाने",
        "वारी"
      ],
      [
        "आ",
        "म्हाला"
      ],
      [
        "त्",
        "ते"
      ],
      [
        "सार",
        "खे"
      ],
      [
        "को",
        "ल्"
      ],
      [
        "पाऊ",
        "स"
      ],
      [
        "उ",
        "पाय"
      ],
      [
        "न",
        "क्की"
      ],
      [
        "का",
        "ंचे"
      ],
      [
        "का",
        "ळा"
      ],
      [
        "ऑक्टो",
        "बर"
      ],
      [
        "सा",
        "ं"
      ],
      [
        "कु",
        "ल"
      ],
      [
        "२",
        "५"
      ],
      [
        "र्",
        "ती"
      ],
      [
        "पो",
        "र्ट"
      ],
      [
        "उ",
        "ल"
      ],
      [
        "क",
        "से"
      ],
      [
        "व्यव",
        "स्था"
      ],
      [
        "गो",
        "ष्ट"
      ],
      [
        "ह",
        "त्या"
      ],
      [
        "ब",
        "ारा"
      ],
      [
        "ी",
        "त"
      ],
      [
        "सु",
        "ट"
      ],
      [
        "स्ट",
        "्रे"
      ],
      [
        "ता",
        "ब"
      ],
      [
        "अस",
        "णार"
      ],
      [
        "पत्र",
        "कार"
      ],
      [
        "असे",
        "ही"
      ],
      [
        "जबाब",
        "दारी"
      ],
      [
        "निवडणुकी",
        "त"
      ],
      [
        "ल",
        "ंब"
      ],
      [
        "प",
        "सर"
      ],
      [
        "वाहत",
        "ूक"
      ],
      [
        "न",
        "क"
      ],
      [
        "का",
        "लाव"
      ],
      [
        "शि",
        "वा"
      ],
      [
        "वि",
        "ण्यात"
      ],
      [
        "फि",
        "र"
      ],
      [
        "स्",
        "मार"
      ],
      [
        "चर्",
        "चे"
      ],
      [
        "फ",
        "त"
      ],
      [
        "मरा",
        "ठा"
      ],
      [
        "करा",
        "यला"
      ],
      [
        "कालाव",
        "धी"
      ],
      [
        "ट",
        "ॅ"
      ],
      [
        "असल्या",
        "चा"
      ],
      [
        "शह",
        "र"
      ],
      [
        "प्रे",
        "म"
      ],
      [
        "कार्य",
        "क्रमा"
      ],
      [
        "सरकार",
        "ी"
      ],
      [
        "ग",
        "स्ट"
      ],
      [
        "ला",
        "भ"
      ],
      [
        "श",
        "नि"
      ],
      [
        "5",
        "0"
      ],
      [
        "काय",
        "द्या"
      ],
      [
        "नि",
        "री"
      ],
      [
        "ात्",
        "मक"
      ],
      [
        "व",
        "ती"
      ],
      [
        "आ",
        "ंब"
      ],
      [
        "वाज",
        "ता"
      ],
      [
        "इ",
        "मार"
      ],
      [
        "नोव्हे",
        "ंबर"
      ],
      [
        "व",
        "स्तू"
      ],
      [
        "प",
        "ंच"
      ],
      [
        "सर्वा",
        "धिक"
      ],
      [
        "जु",
        "लै"
      ],
      [
        "गर्",
        "दी"
      ],
      [
        "मिळ",
        "णार"
      ],
      [
        "राज",
        "कारण"
      ],
      [
        "ठा",
        "णे"
      ],
      [
        "दे",
        "वेंद्र"
      ],
      [
        "पि",
        "ं"
      ],
      [
        "प्रकर",
        "णा"
      ],
      [
        "वि",
        "मान"
      ],
      [
        "च",
        "व्हा"
      ],
      [
        "प्र",
        "स्ता"
      ],
      [
        "शि",
        "ंदे"
      ],
      [
        "ल्या",
        "स"
      ],
      [
        "नेत",
        "ृ"
      ],
      [
        "सं",
        "घात"
      ],
      [
        "संख",
        "्ये"
      ],
      [
        "ने",
        "ता"
      ],
      [
        "१",
        "३"
      ],
      [
        "वा",
        "ड"
      ],
      [
        "राज",
        "ी"
      ],
      [
        "म",
        "र"
      ],
      [
        "मू",
        "ल"
      ],
      [
        "स",
        "ौ"
      ],
      [
        "वर्",
        "ग"
      ],
      [
        "ब्र",
        "ु"
      ],
      [
        "टा",
        "ळ"
      ],
      [
        "नगर",
        "से"
      ],
      [
        "के",
        "ने"
      ],
      [
        "ऑ",
        "गस्ट"
      ],
      [
        "हात",
        "ा"
      ],
      [
        "बु",
        "ध"
      ],
      [
        "२०",
        "०"
      ],
      [
        "या",
        "नंतर"
      ],
      [
        "कोण",
        "ती"
      ],
      [
        "वी",
        "ज"
      ],
      [
        "हो",
        "ण्याची"
      ],
      [
        "ला",
        "त"
      ],
      [
        "प्रकार",
        "े"
      ],
      [
        "स",
        "मु"
      ],
      [
        "पा",
        "ड"
      ],
      [
        "धा",
        "व"
      ],
      [
        "ये",
        "तो"
      ],
      [
        "प्रत्य",
        "क्ष"
      ],
      [
        "णा",
        "या"
      ],
      [
        "सरकार",
        "च्या"
      ],
      [
        "सद",
        "स्य"
      ],
      [
        "सं",
        "र"
      ],
      [
        "द",
        "क्षि"
      ],
      [
        "य",
        "ं"
      ],
      [
        "शु",
        "क्र"
      ],
      [
        "तो",
        "ड"
      ],
      [
        "पात",
        "ळी"
      ],
      [
        "क्षेत्र",
        "ात"
      ],
      [
        "च",
        "ंड"
      ],
      [
        "सार",
        "्व"
      ],
      [
        "घ",
        "ु"
      ],
      [
        "न्यायालया",
        "ने"
      ],
      [
        "द",
        "ै"
      ],
      [
        "तरी",
        "ही"
      ],
      [
        "ल",
        "च्या"
      ],
      [
        "ंद",
        "ी"
      ],
      [
        "प्ट",
        "े"
      ],
      [
        "र",
        "द्द"
      ],
      [
        "कृ",
        "षी"
      ],
      [
        "हि",
        "वा"
      ],
      [
        "डि",
        "से"
      ],
      [
        "निय",
        "म"
      ],
      [
        "जन्",
        "म"
      ],
      [
        "धो",
        "का"
      ],
      [
        "चि",
        "म"
      ],
      [
        "इंग",
        "्"
      ],
      [
        "त्रा",
        "स"
      ],
      [
        "नाग",
        "पूर"
      ],
      [
        "शे",
        "ती"
      ],
      [
        "म",
        "नात"
      ],
      [
        "मुख्य",
        "मंत्र्या"
      ],
      [
        "टि",
        "व्ह"
      ],
      [
        "निर्",
        "मिती"
      ],
      [
        "स्थाप",
        "न"
      ],
      [
        "परिष",
        "दे"
      ],
      [
        "फाय",
        "दा"
      ],
      [
        "योज",
        "ित"
      ],
      [
        "मह",
        "त्वा"
      ],
      [
        "ज",
        "मा"
      ],
      [
        "स्",
        "टा"
      ],
      [
        "योज",
        "ने"
      ],
      [
        "प्र",
        "चंड"
      ],
      [
        "सा",
        "ली"
      ],
      [
        "व",
        "लं"
      ],
      [
        "जी",
        "वन"
      ],
      [
        "स",
        "प्टे"
      ],
      [
        "मंड",
        "ळ"
      ],
      [
        "तया",
        "री"
      ],
      [
        "प्र",
        "क्रिया"
      ],
      [
        "मी",
        "न"
      ],
      [
        "भा",
        "जी"
      ],
      [
        "ये",
        "ऊ"
      ],
      [
        "वि",
        "ना"
      ],
      [
        "जोर",
        "दार"
      ],
      [
        "वैद्य",
        "कीय"
      ],
      [
        "1",
        "1"
      ],
      [
        "दृ",
        "ष्टी"
      ],
      [
        "ना",
        "चे"
      ],
      [
        "मी",
        "ण"
      ],
      [
        "स्त",
        "्री"
      ],
      [
        "वि",
        "त"
      ],
      [
        "डिसे",
        "ंबर"
      ],
      [
        "सह",
        "भागी"
      ],
      [
        "सं",
        "शोध"
      ],
      [
        "न",
        "दी"
      ],
      [
        "खास",
        "गी"
      ],
      [
        "ग्रा",
        "मीण"
      ],
      [
        "उ",
        "पा"
      ],
      [
        "ल्",
        "ल्या"
      ],
      [
        "प्",
        "पा"
      ],
      [
        "विश्",
        "व"
      ],
      [
        "एस",
        "टी"
      ],
      [
        "जवळ",
        "पास"
      ],
      [
        "अ",
        "ल्"
      ],
      [
        "रा",
        "य"
      ],
      [
        "सप्टे",
        "ंबर"
      ],
      [
        "ळ",
        "गाव"
      ],
      [
        "महि",
        "ले"
      ],
      [
        "पु",
        "न"
      ],
      [
        "हो",
        "तात"
      ],
      [
        "प",
        "त"
      ],
      [
        "व",
        "तीने"
      ],
      [
        "मि",
        "नी"
      ],
      [
        "भ",
        "्र"
      ],
      [
        "सु",
        "नाव"
      ],
      [
        "आंतर",
        "राष्ट्रीय"
      ],
      [
        "लाग",
        "णार"
      ],
      [
        "हवा",
        "मान"
      ],
      [
        "द",
        "रा"
      ],
      [
        "ह",
        "ै"
      ],
      [
        "ब",
        "ू"
      ],
      [
        "फे",
        "ब्रु"
      ],
      [
        "काढ",
        "ून"
      ],
      [
        "मंत",
        "्रा"
      ],
      [
        "उत्",
        "तम"
      ],
      [
        "उ",
        "भार"
      ],
      [
        "लवकर",
        "च"
      ],
      [
        "तरु",
        "णा"
      ],
      [
        "फेब्रु",
        "वारी"
      ],
      [
        "पद्ध",
        "तीने"
      ],
      [
        "भा",
        "ऊ"
      ],
      [
        "वर",
        "ुन"
      ],
      [
        "जख",
        "मी"
      ],
      [
        "ज",
        "ारा"
      ],
      [
        "राऊ",
        "त"
      ],
      [
        "को",
        "विड"
      ],
      [
        "स्व",
        "च्छ"
      ],
      [
        "फ",
        "ॅ"
      ],
      [
        "लोक",
        "सभा"
      ],
      [
        "चाल",
        "ू"
      ],
      [
        "क",
        "ले"
      ],
      [
        "डॉ",
        "क्ट"
      ],
      [
        "पर्",
        "य"
      ],
      [
        "शि",
        "ष्ट"
      ],
      [
        "ठे",
        "वा"
      ],
      [
        "ट्र",
        "ोल"
      ],
      [
        "जात",
        "ी"
      ],
      [
        "न",
        "कार"
      ],
      [
        "गर",
        "जे"
      ],
      [
        "a",
        "l"
      ],
      [
        "चव्हा",
        "ण"
      ],
      [
        "शास",
        "कीय"
      ],
      [
        "ल",
        "िक"
      ],
      [
        "सी",
        "बी"
      ],
      [
        "र्",
        "ष"
      ],
      [
        "काँग्रेस",
        "चे"
      ],
      [
        "्या",
        "च्या"
      ],
      [
        "ह",
        "ल्ला"
      ],
      [
        "अस",
        "ले"
      ],
      [
        "्या",
        "वर"
      ],
      [
        "अस",
        "ो"
      ],
      [
        "पिं",
        "परी"
      ],
      [
        "जाण",
        "ून"
      ],
      [
        "ध",
        "्"
      ],
      [
        "२",
        "१"
      ],
      [
        "रक्",
        "कम"
      ],
      [
        "अति",
        "शय"
      ],
      [
        "य",
        "म"
      ],
      [
        "माण",
        "सा"
      ],
      [
        "साहि",
        "त्य"
      ],
      [
        "अड",
        "चणी"
      ],
      [
        "टि",
        "ंग"
      ],
      [
        "पा",
        "ळ"
      ],
      [
        "सरकार",
        "ला"
      ],
      [
        "विष",
        "य"
      ],
      [
        "पाहा",
        "यला"
      ],
      [
        "दि",
        "लं"
      ],
      [
        "म्हण",
        "तात"
      ],
      [
        "ना",
        "गर"
      ],
      [
        "वाट",
        "त"
      ],
      [
        "ब",
        "ला"
      ],
      [
        "केल्या",
        "नंतर"
      ],
      [
        "यश",
        "स्वी"
      ],
      [
        "ंप",
        "ै"
      ],
      [
        "दु",
        "का"
      ],
      [
        "1",
        "6"
      ],
      [
        "मिळा",
        "ला"
      ],
      [
        "सं",
        "ब"
      ],
      [
        "ग",
        "ळ"
      ],
      [
        "पाह",
        "ून"
      ],
      [
        "क",
        "सा"
      ],
      [
        "ट",
        "िक"
      ],
      [
        "घड",
        "ली"
      ],
      [
        "ग",
        "ारा"
      ],
      [
        "ंपै",
        "की"
      ],
      [
        "सचि",
        "न"
      ],
      [
        "वा",
        "हि"
      ],
      [
        "माहिती",
        "नुसार"
      ],
      [
        "e",
        "s"
      ],
      [
        "1",
        "7"
      ],
      [
        "श",
        "क्ती"
      ],
      [
        "व्हायर",
        "ल"
      ],
      [
        "काय",
        "दा"
      ],
      [
        "बॉ",
        "लि"
      ],
      [
        "व",
        "क्त"
      ],
      [
        "औ",
        "रंगा"
      ],
      [
        "मा",
        "झा"
      ],
      [
        "जार",
        "ी"
      ],
      [
        "२",
        "४"
      ],
      [
        "शिवा",
        "जी"
      ],
      [
        "म",
        "ण"
      ],
      [
        "ष",
        "े"
      ],
      [
        "ज",
        "्ये"
      ],
      [
        "वे",
        "ल"
      ],
      [
        "र",
        "ॉ"
      ],
      [
        "इ",
        "तिहा"
      ],
      [
        "बैठ",
        "क"
      ],
      [
        "निवडण",
        "ु"
      ],
      [
        "2",
        "5"
      ],
      [
        "रू",
        "प"
      ],
      [
        "कार्य",
        "क्रम"
      ],
      [
        "बँ",
        "क"
      ],
      [
        "न",
        "ार"
      ],
      [
        "क",
        "्यात"
      ],
      [
        "न",
        "ै"
      ],
      [
        "क",
        "ून"
      ],
      [
        "त",
        "ंत्र"
      ],
      [
        "क्",
        "शन"
      ],
      [
        "इ",
        "श"
      ],
      [
        "्र",
        "िया"
      ],
      [
        "ह",
        "ू"
      ],
      [
        "व्यव",
        "साय"
      ],
      [
        "मित",
        "्र"
      ],
      [
        "विद्यार्थ",
        "ी"
      ],
      [
        "कोल्",
        "हा"
      ],
      [
        "व",
        "ल"
      ],
      [
        "किं",
        "मत"
      ],
      [
        "राह",
        "णार"
      ],
      [
        "अर्थ",
        "ात"
      ],
      [
        "या",
        "दी"
      ],
      [
        "उ",
        "ड"
      ],
      [
        "पर्या",
        "य"
      ],
      [
        "अ",
        "निल"
      ],
      [
        "सोम",
        "वारी"
      ],
      [
        "सा",
        "धारण"
      ],
      [
        "उ",
        "दा"
      ],
      [
        "शा",
        "ही"
      ],
      [
        "उ",
        "र्"
      ],
      [
        "ठा",
        "ण्यात"
      ],
      [
        "ब",
        "द"
      ],
      [
        "झाल्या",
        "ने"
      ],
      [
        "रा",
        "ख"
      ],
      [
        "मा",
        "य"
      ],
      [
        "दे",
        "ण्यासाठी"
      ],
      [
        "शास",
        "न"
      ],
      [
        "तपास",
[...]
